/*
 * Auto-generated TensorFlow Lite model data for STM32 deployment
 * Generated on: 2025-09-26 03:10:55
 * Model: NASA Bearing Fault Detection (TinyML Optimized)
 * Size: 4272 bytes (4.2 KB)
 * Quantization: INT8
 */

#ifndef MODEL_DATA_H
#define MODEL_DATA_H

#include <stdint.h>

// Model data array
const unsigned char model_data[] = {
    0x20, 0x00, 0x00, 0x00, 0x54, 0x46, 0x4c, 0x33, 0x00, 0x00, 0x00, 0x00, 0x14, 0x00, 0x20, 0x00, \n    0x1c, 0x00, 0x18, 0x00, 0x14, 0x00, 0x10, 0x00, 0x0c, 0x00, 0x00, 0x00, 0x08, 0x00, 0x04, 0x00, \n    0x14, 0x00, 0x00, 0x00, 0x1c, 0x00, 0x00, 0x00, 0x90, 0x00, 0x00, 0x00, 0xe8, 0x00, 0x00, 0x00, \n    0x60, 0x04, 0x00, 0x00, 0x70, 0x04, 0x00, 0x00, 0x54, 0x10, 0x00, 0x00, 0x03, 0x00, 0x00, 0x00, \n    0x01, 0x00, 0x00, 0x00, 0x10, 0x00, 0x00, 0x00, 0x00, 0x00, 0x0a, 0x00, 0x10, 0x00, 0x0c, 0x00, \n    0x08, 0x00, 0x04, 0x00, 0x0a, 0x00, 0x00, 0x00, 0x0c, 0x00, 0x00, 0x00, 0x1c, 0x00, 0x00, 0x00, \n    0x3c, 0x00, 0x00, 0x00, 0x0f, 0x00, 0x00, 0x00, 0x73, 0x65, 0x72, 0x76, 0x69, 0x6e, 0x67, 0x5f, \n    0x64, 0x65, 0x66, 0x61, 0x75, 0x6c, 0x74, 0x00, 0x01, 0x00, 0x00, 0x00, 0x04, 0x00, 0x00, 0x00, \n    0x98, 0xff, 0xff, 0xff, 0x0c, 0x00, 0x00, 0x00, 0x04, 0x00, 0x00, 0x00, 0x08, 0x00, 0x00, 0x00, \n    0x6f, 0x75, 0x74, 0x70, 0x75, 0x74, 0x5f, 0x30, 0x00, 0x00, 0x00, 0x00, 0x01, 0x00, 0x00, 0x00, \n    0x04, 0x00, 0x00, 0x00, 0x4e, 0xfc, 0xff, 0xff, 0x04, 0x00, 0x00, 0x00, 0x05, 0x00, 0x00, 0x00, \n    0x69, 0x6e, 0x70, 0x75, 0x74, 0x00, 0x00, 0x00, 0x02, 0x00, 0x00, 0x00, 0x34, 0x00, 0x00, 0x00, \n    0x04, 0x00, 0x00, 0x00, 0xdc, 0xff, 0xff, 0xff, 0x0f, 0x00, 0x00, 0x00, 0x04, 0x00, 0x00, 0x00, \n    0x13, 0x00, 0x00, 0x00, 0x43, 0x4f, 0x4e, 0x56, 0x45, 0x52, 0x53, 0x49, 0x4f, 0x4e, 0x5f, 0x4d, \n    0x45, 0x54, 0x41, 0x44, 0x41, 0x54, 0x41, 0x00, 0x08, 0x00, 0x0c, 0x00, 0x08, 0x00, 0x04, 0x00, \n    0x08, 0x00, 0x00, 0x00, 0x0e, 0x00, 0x00, 0x00, 0x04, 0x00, 0x00, 0x00, 0x13, 0x00, 0x00, 0x00, \n    0x6d, 0x69, 0x6e, 0x5f, 0x72, 0x75, 0x6e, 0x74, 0x69, 0x6d, 0x65, 0x5f, 0x76, 0x65, 0x72, 0x73, \n    0x69, 0x6f, 0x6e, 0x00, 0x10, 0x00, 0x00, 0x00, 0x74, 0x03, 0x00, 0x00, 0x6c, 0x03, 0x00, 0x00, \n    0x3c, 0x03, 0x00, 0x00, 0xa4, 0x02, 0x00, 0x00, 0x54, 0x02, 0x00, 0x00, 0x04, 0x02, 0x00, 0x00, \n    0xe4, 0x01, 0x00, 0x00, 0x94, 0x01, 0x00, 0x00, 0x44, 0x01, 0x00, 0x00, 0xb4, 0x00, 0x00, 0x00, \n    0xac, 0x00, 0x00, 0x00, 0xa4, 0x00, 0x00, 0x00, 0x9c, 0x00, 0x00, 0x00, 0x94, 0x00, 0x00, 0x00, \n    0x74, 0x00, 0x00, 0x00, 0x04, 0x00, 0x00, 0x00, 0x02, 0xfd, 0xff, 0xff, 0x04, 0x00, 0x00, 0x00, \n    0x60, 0x00, 0x00, 0x00, 0x0c, 0x00, 0x00, 0x00, 0x08, 0x00, 0x0e, 0x00, 0x08, 0x00, 0x04, 0x00, \n    0x08, 0x00, 0x00, 0x00, 0x10, 0x00, 0x00, 0x00, 0x28, 0x00, 0x00, 0x00, 0x00, 0x00, 0x06, 0x00, \n    0x08, 0x00, 0x04, 0x00, 0x06, 0x00, 0x00, 0x00, 0x04, 0x00, 0x00, 0x00, 0x01, 0x00, 0x00, 0x00, \n    0xeb, 0x03, 0x00, 0x00, 0x0c, 0x00, 0x18, 0x00, 0x14, 0x00, 0x10, 0x00, 0x0c, 0x00, 0x04, 0x00, \n    0x0c, 0x00, 0x00, 0x00, 0x43, 0xbe, 0xd7, 0xb2, 0xaa, 0x83, 0x87, 0xbc, 0x02, 0x00, 0x00, 0x00, \n    0x02, 0x00, 0x00, 0x00, 0x04, 0x00, 0x00, 0x00, 0x06, 0x00, 0x00, 0x00, 0x32, 0x2e, 0x32, 0x30, \n    0x2e, 0x30, 0x00, 0x00, 0x6e, 0xfd, 0xff, 0xff, 0x04, 0x00, 0x00, 0x00, 0x10, 0x00, 0x00, 0x00, \n    0x31, 0x2e, 0x31, 0x34, 0x2e, 0x30, 0x00, 0x00, 0x00, 0x00, 0x00, 0x00, 0x00, 0x00, 0x00, 0x00, \n    0xd8, 0xfc, 0xff, 0xff, 0xdc, 0xfc, 0xff, 0xff, 0xe0, 0xfc, 0xff, 0xff, 0xe4, 0xfc, 0xff, 0xff, \n    0x9a, 0xfd, 0xff, 0xff, 0x04, 0x00, 0x00, 0x00, 0x80, 0x00, 0x00, 0x00, 0x77, 0x4e, 0xd2, 0x33, \n    0xfe, 0x3e, 0x7f, 0x5b, 0x63, 0xd8, 0x3c, 0x43, 0x62, 0x7f, 0x82, 0xe6, 0x81, 0x82, 0xd7, 0xdb, \n    0xb6, 0x5d, 0x2b, 0xd7, 0x28, 0x81, 0x6c, 0xaa, 0x9e, 0xc6, 0xea, 0x90, 0xc4, 0x2f, 0xdc, 0x9d, \n    0x81, 0xed, 0x10, 0x10, 0x2c, 0xb4, 0x0c, 0x5c, 0xcf, 0x5a, 0x7f, 0x61, 0xfc, 0x45, 0xb1, 0xef, \n    0x22, 0xcc, 0xd2, 0x7f, 0x89, 0x8d, 0x26, 0x7f, 0x91, 0x07, 0xcf, 0x33, 0xe3, 0x7b, 0x32, 0x13, \n    0x42, 0x7f, 0xf7, 0x00, 0xf2, 0xae, 0x81, 0x15, 0x1b, 0xd4, 0x8f, 0x88, 0xab, 0x89, 0xfd, 0x8f, \n    0x81, 0xad, 0x33, 0xbf, 0x48, 0x97, 0xe0, 0x93, 0x81, 0xce, 0x36, 0x39, 0x19, 0xb5, 0x81, 0xab, \n    0x21, 0x7d, 0x86, 0x39, 0xeb, 0x02, 0x50, 0xb0, 0x6e, 0x81, 0x88, 0x30, 0x35, 0x7d, 0xec, 0x70, \n    0x73, 0xa6, 0xdd, 0x81, 0xdc, 0xd4, 0x24, 0x53, 0x3e, 0x5a, 0xe2, 0x7f, 0x26, 0xfe, 0xff, 0xff, \n    0x04, 0x00, 0x00, 0x00, 0x40, 0x00, 0x00, 0x00, 0x7f, 0x0f, 0x00, 0x00, 0xdb, 0xec, 0xff, 0xff, \n    0x57, 0xee, 0xff, 0xff, 0x00, 0x00, 0x00, 0x00, 0x00, 0x00, 0x00, 0x00, 0x70, 0x12, 0x00, 0x00, \n    0x97, 0x04, 0x00, 0x00, 0x00, 0x00, 0x00, 0x00, 0x5e, 0x09, 0x00, 0x00, 0x00, 0x00, 0x00, 0x00, \n    0x00, 0x00, 0x00, 0x00, 0xf2, 0xf1, 0xff, 0xff, 0x7c, 0xfe, 0xff, 0xff, 0x6e, 0x04, 0x00, 0x00, \n    0x12, 0xf8, 0xff, 0xff, 0xb7, 0xfe, 0xff, 0xff, 0x72, 0xfe, 0xff, 0xff, 0x04, 0x00, 0x00, 0x00, \n    0x40, 0x00, 0x00, 0x00, 0x42, 0xa3, 0x96, 0xd8, 0x55, 0x2d, 0xbf, 0x0a, 0x7f, 0x81, 0xd9, 0xdc, \n    0xe5, 0x8a, 0x74, 0x1f, 0xeb, 0xa5, 0xc1, 0x33, 0x1c, 0xb2, 0x7b, 0xbe, 0x37, 0xe4, 0x00, 0x2d, \n    0x1d, 0xe7, 0x81, 0xbc, 0xa1, 0x14, 0x33, 0x69, 0xe0, 0xc9, 0x81, 0x9b, 0x4a, 0x18, 0xe0, 0x43, \n    0x7b, 0x5f, 0x50, 0x65, 0x85, 0x90, 0x30, 0x17, 0xa1, 0xcb, 0xbc, 0x20, 0x9a, 0xe3, 0x81, 0xec, \n    0x62, 0xfe, 0xb3, 0x66, 0xbe, 0xfe, 0xff, 0xff, 0x04, 0x00, 0x00, 0x00, 0x10, 0x00, 0x00, 0x00, \n    0x48, 0x0a, 0x00, 0x00, 0x00, 0x00, 0x00, 0x00, 0x00, 0xfc, 0xff, 0xff, 0x00, 0x00, 0x00, 0x00, \n    0xda, 0xfe, 0xff, 0xff, 0x04, 0x00, 0x00, 0x00, 0x40, 0x00, 0x00, 0x00, 0x6a, 0x67, 0x7f, 0xad, \n    0x08, 0x93, 0xa2, 0x7f, 0x81, 0x8c, 0x58, 0xa5, 0x7f, 0xaf, 0xd9, 0x62, 0x3f, 0x0d, 0x30, 0x81, \n    0xae, 0x81, 0x7a, 0x11, 0x49, 0x2f, 0xae, 0x81, 0xde, 0x99, 0xee, 0x7f, 0x5e, 0x81, 0x72, 0xd6, \n    0x21, 0x42, 0x81, 0xc5, 0x2f, 0x81, 0x04, 0xcf, 0xee, 0xbe, 0x48, 0x7f, 0xae, 0x7f, 0xaf, 0x87, \n    0xc8, 0xd9, 0xe3, 0x81, 0xf1, 0x81, 0x52, 0x86, 0x60, 0x67, 0x10, 0x81, 0x26, 0xff, 0xff, 0xff, \n    0x04, 0x00, 0x00, 0x00, 0x40, 0x00, 0x00, 0x00, 0x09, 0x1c, 0x00, 0x00, 0x27, 0xfa, 0xff, 0xff, \n    0x00, 0x00, 0x00, 0x00, 0x9c, 0xe9, 0xff, 0xff, 0xfa, 0xef, 0xff, 0xff, 0x25, 0xfe, 0xff, 0xff, \n    0xe0, 0x15, 0x00, 0x00, 0x00, 0x00, 0x00, 0x00, 0xbe, 0xe9, 0xff, 0xff, 0x5d, 0x15, 0x00, 0x00, \n    0x35, 0x0e, 0x00, 0x00, 0x72, 0xfc, 0xff, 0xff, 0x00, 0x00, 0x00, 0x00, 0x00, 0x00, 0x00, 0x00, \n    0x50, 0x1a, 0x00, 0x00, 0xd2, 0x12, 0x00, 0x00, 0x72, 0xff, 0xff, 0xff, 0x04, 0x00, 0x00, 0x00, \n    0x80, 0x00, 0x00, 0x00, 0x7b, 0xe4, 0x81, 0x2b, 0xe7, 0xa3, 0x29, 0xc9, 0xa1, 0xd7, 0xc9, 0x4c, \n    0x9c, 0x8d, 0x10, 0x2c, 0xa1, 0xa1, 0x34, 0x6b, 0xd1, 0x6c, 0x3f, 0x10, 0xfa, 0xe4, 0x62, 0x07, \n    0xd9, 0xb8, 0x74, 0x7f, 0x5c, 0x34, 0xc3, 0x28, 0xd1, 0x26, 0x65, 0xb3, 0xc1, 0x7f, 0x5c, 0xb1, \n    0x52, 0x38, 0x4f, 0xa8, 0x95, 0xd1, 0x2c, 0x7f, 0xd0, 0x64, 0x5a, 0x88, 0x4f, 0x63, 0x4a, 0x0d, \n    0x3a, 0x69, 0x18, 0x2d, 0x01, 0xc5, 0xde, 0xb3, 0xc2, 0x16, 0x70, 0x25, 0xe4, 0x7f, 0x01, 0xa8, \n    0xdc, 0x9e, 0x6b, 0xf6, 0x57, 0xa9, 0xf5, 0x1d, 0xd4, 0xc2, 0x7f, 0xc5, 0x31, 0xc2, 0x28, 0xdf, \n    0x52, 0x02, 0xf8, 0x26, 0x67, 0x64, 0x0a, 0x61, 0x97, 0x90, 0x41, 0xb9, 0x17, 0x55, 0x30, 0x52, \n    0x66, 0xbf, 0x98, 0x7f, 0xd9, 0xe8, 0x77, 0xb0, 0x5f, 0xe6, 0x58, 0x8f, 0xe0, 0x08, 0x2f, 0xcc, \n    0xa1, 0xc6, 0x39, 0x7f, 0x00, 0x00, 0x06, 0x00, 0x08, 0x00, 0x04, 0x00, 0x06, 0x00, 0x00, 0x00, \n    0x04, 0x00, 0x00, 0x00, 0x20, 0x00, 0x00, 0x00, 0xae, 0x2a, 0x00, 0x00, 0x3a, 0x1c, 0x00, 0x00, \n    0x7e, 0x18, 0x00, 0x00, 0x27, 0x13, 0x00, 0x00, 0xc4, 0x22, 0x00, 0x00, 0x35, 0x1c, 0x00, 0x00, \n    0x3b, 0x21, 0x00, 0x00, 0xbe, 0x28, 0x00, 0x00, 0x80, 0xff, 0xff, 0xff, 0x84, 0xff, 0xff, 0xff, \n    0x0f, 0x00, 0x00, 0x00, 0x4d, 0x4c, 0x49, 0x52, 0x20, 0x43, 0x6f, 0x6e, 0x76, 0x65, 0x72, 0x74, \n    0x65, 0x64, 0x2e, 0x00, 0x01, 0x00, 0x00, 0x00, 0x14, 0x00, 0x00, 0x00, 0x00, 0x00, 0x0e, 0x00, \n    0x18, 0x00, 0x14, 0x00, 0x10, 0x00, 0x0c, 0x00, 0x08, 0x00, 0x04, 0x00, 0x0e, 0x00, 0x00, 0x00, \n    0x14, 0x00, 0x00, 0x00, 0x1c, 0x00, 0x00, 0x00, 0x14, 0x01, 0x00, 0x00, 0x18, 0x01, 0x00, 0x00, \n    0x1c, 0x01, 0x00, 0x00, 0x04, 0x00, 0x00, 0x00, 0x6d, 0x61, 0x69, 0x6e, 0x00, 0x00, 0x00, 0x00, \n    0x04, 0x00, 0x00, 0x00, 0xbc, 0x00, 0x00, 0x00, 0x74, 0x00, 0x00, 0x00, 0x3c, 0x00, 0x00, 0x00, \n    0x04, 0x00, 0x00, 0x00, 0x62, 0xff, 0xff, 0xff, 0x14, 0x00, 0x00, 0x00, 0x00, 0x00, 0x00, 0x08, \n    0x10, 0x00, 0x00, 0x00, 0x14, 0x00, 0x00, 0x00, 0x04, 0x00, 0x04, 0x00, 0x04, 0x00, 0x00, 0x00, \n    0x01, 0x00, 0x00, 0x00, 0x0c, 0x00, 0x00, 0x00, 0x03, 0x00, 0x00, 0x00, 0x0b, 0x00, 0x00, 0x00, \n    0x02, 0x00, 0x00, 0x00, 0x01, 0x00, 0x00, 0x00, 0x96, 0xff, 0xff, 0xff, 0x10, 0x00, 0x00, 0x00, \n    0x00, 0x00, 0x00, 0x08, 0x10, 0x00, 0x00, 0x00, 0x14, 0x00, 0x00, 0x00, 0x86, 0xff, 0xff, 0xff, \n    0x00, 0x00, 0x00, 0x01, 0x01, 0x00, 0x00, 0x00, 0x0b, 0x00, 0x00, 0x00, 0x03, 0x00, 0x00, 0x00, \n    0x0a, 0x00, 0x00, 0x00, 0x04, 0x00, 0x00, 0x00, 0x03, 0x00, 0x00, 0x00, 0xca, 0xff, 0xff, 0xff, \n    0x10, 0x00, 0x00, 0x00, 0x00, 0x00, 0x00, 0x08, 0x10, 0x00, 0x00, 0x00, 0x14, 0x00, 0x00, 0x00, \n    0xba, 0xff, 0xff, 0xff, 0x00, 0x00, 0x00, 0x01, 0x01, 0x00, 0x00, 0x00, 0x0a, 0x00, 0x00, 0x00, \n    0x03, 0x00, 0x00, 0x00, 0x09, 0x00, 0x00, 0x00, 0x06, 0x00, 0x00, 0x00, 0x05, 0x00, 0x00, 0x00, \n    0x00, 0x00, 0x0e, 0x00, 0x16, 0x00, 0x00, 0x00, 0x10, 0x00, 0x0c, 0x00, 0x0b, 0x00, 0x04, 0x00, \n    0x0e, 0x00, 0x00, 0x00, 0x18, 0x00, 0x00, 0x00, 0x00, 0x00, 0x00, 0x08, 0x18, 0x00, 0x00, 0x00, \n    0x1c, 0x00, 0x00, 0x00, 0x00, 0x00, 0x06, 0x00, 0x08, 0x00, 0x07, 0x00, 0x06, 0x00, 0x00, 0x00, \n    0x00, 0x00, 0x00, 0x01, 0x01, 0x00, 0x00, 0x00, 0x09, 0x00, 0x00, 0x00, 0x03, 0x00, 0x00, 0x00, \n    0x00, 0x00, 0x00, 0x00, 0x08, 0x00, 0x00, 0x00, 0x07, 0x00, 0x00, 0x00, 0x01, 0x00, 0x00, 0x00, \n    0x0c, 0x00, 0x00, 0x00, 0x01, 0x00, 0x00, 0x00, 0x00, 0x00, 0x00, 0x00, 0x0d, 0x00, 0x00, 0x00, \n    0x18, 0x0a, 0x00, 0x00, 0x48, 0x09, 0x00, 0x00, 0x74, 0x08, 0x00, 0x00, 0x60, 0x07, 0x00, 0x00, \n    0x44, 0x06, 0x00, 0x00, 0xc0, 0x05, 0x00, 0x00, 0x34, 0x05, 0x00, 0x00, 0x20, 0x04, 0x00, 0x00, \n    0x04, 0x03, 0x00, 0x00, 0x30, 0x02, 0x00, 0x00, 0x54, 0x01, 0x00, 0x00, 0x80, 0x00, 0x00, 0x00, \n    0x04, 0x00, 0x00, 0x00, 0x32, 0xf6, 0xff, 0xff, 0x00, 0x00, 0x00, 0x01, 0x18, 0x00, 0x00, 0x00, \n    0x20, 0x00, 0x00, 0x00, 0x3c, 0x00, 0x00, 0x00, 0x0d, 0x00, 0x00, 0x00, 0x00, 0x00, 0x00, 0x09, \n    0x50, 0x00, 0x00, 0x00, 0x02, 0x00, 0x00, 0x00, 0xff, 0xff, 0xff, 0xff, 0x08, 0x00, 0x00, 0x00, \n    0x1c, 0xf6, 0xff, 0xff, 0x08, 0x00, 0x00, 0x00, 0x10, 0x00, 0x00, 0x00, 0x01, 0x00, 0x00, 0x00, \n    0x80, 0xff, 0xff, 0xff, 0xff, 0xff, 0xff, 0xff, 0x01, 0x00, 0x00, 0x00, 0xd2, 0xa3, 0x41, 0x3b, \n    0x1b, 0x00, 0x00, 0x00, 0x53, 0x74, 0x61, 0x74, 0x65, 0x66, 0x75, 0x6c, 0x50, 0x61, 0x72, 0x74, \n    0x69, 0x74, 0x69, 0x6f, 0x6e, 0x65, 0x64, 0x43, 0x61, 0x6c, 0x6c, 0x5f, 0x31, 0x3a, 0x30, 0x00, \n    0x02, 0x00, 0x00, 0x00, 0x01, 0x00, 0x00, 0x00, 0x08, 0x00, 0x00, 0x00, 0xaa, 0xf6, 0xff, 0xff, \n    0x00, 0x00, 0x00, 0x01, 0x18, 0x00, 0x00, 0x00, 0x20, 0x00, 0x00, 0x00, 0x3c, 0x00, 0x00, 0x00, \n    0x0c, 0x00, 0x00, 0x00, 0x00, 0x00, 0x00, 0x09, 0xa8, 0x00, 0x00, 0x00, 0x02, 0x00, 0x00, 0x00, \n    0xff, 0xff, 0xff, 0xff, 0x10, 0x00, 0x00, 0x00, 0x94, 0xf6, 0xff, 0xff, 0x08, 0x00, 0x00, 0x00, \n    0x10, 0x00, 0x00, 0x00, 0x01, 0x00, 0x00, 0x00, 0x80, 0xff, 0xff, 0xff, 0xff, 0xff, 0xff, 0xff, \n    0x01, 0x00, 0x00, 0x00, 0x0c, 0xfb, 0x08, 0x3b, 0x73, 0x00, 0x00, 0x00, 0x74, 0x69, 0x6e, 0x79, \n    0x6d, 0x6c, 0x5f, 0x61, 0x75, 0x74, 0x6f, 0x65, 0x6e, 0x63, 0x6f, 0x64, 0x65, 0x72, 0x5f, 0x31, \n    0x2f, 0x64, 0x65, 0x63, 0x6f, 0x64, 0x65, 0x5f, 0x31, 0x5f, 0x31, 0x2f, 0x4d, 0x61, 0x74, 0x4d, \n    0x75, 0x6c, 0x3b, 0x74, 0x69, 0x6e, 0x79, 0x6d, 0x6c, 0x5f, 0x61, 0x75, 0x74, 0x6f, 0x65, 0x6e, \n    0x63, 0x6f, 0x64, 0x65, 0x72, 0x5f, 0x31, 0x2f, 0x64, 0x65, 0x63, 0x6f, 0x64, 0x65, 0x5f, 0x31, \n    0x5f, 0x31, 0x2f, 0x52, 0x65, 0x6c, 0x75, 0x3b, 0x74, 0x69, 0x6e, 0x79, 0x6d, 0x6c, 0x5f, 0x61, \n    0x75, 0x74, 0x6f, 0x65, 0x6e, 0x63, 0x6f, 0x64, 0x65, 0x72, 0x5f, 0x31, 0x2f, 0x64, 0x65, 0x63, \n    0x6f, 0x64, 0x65, 0x5f, 0x31, 0x5f, 0x31, 0x2f, 0x42, 0x69, 0x61, 0x73, 0x41, 0x64, 0x64, 0x00, \n    0x02, 0x00, 0x00, 0x00, 0x01, 0x00, 0x00, 0x00, 0x10, 0x00, 0x00, 0x00, 0x7a, 0xf7, 0xff, 0xff, \n    0x00, 0x00, 0x00, 0x01, 0x18, 0x00, 0x00, 0x00, 0x20, 0x00, 0x00, 0x00, 0x3c, 0x00, 0x00, 0x00, \n    0x0b, 0x00, 0x00, 0x00, 0x00, 0x00, 0x00, 0x09, 0xb0, 0x00, 0x00, 0x00, 0x02, 0x00, 0x00, 0x00, \n    0xff, 0xff, 0xff, 0xff, 0x04, 0x00, 0x00, 0x00, 0x64, 0xf7, 0xff, 0xff, 0x08, 0x00, 0x00, 0x00, \n    0x10, 0x00, 0x00, 0x00, 0x01, 0x00, 0x00, 0x00, 0x80, 0xff, 0xff, 0xff, 0xff, 0xff, 0xff, 0xff, \n    0x01, 0x00, 0x00, 0x00, 0x1e, 0xb8, 0x8c, 0x3b, 0x79, 0x00, 0x00, 0x00, 0x74, 0x69, 0x6e, 0x79, \n    0x6d, 0x6c, 0x5f, 0x61, 0x75, 0x74, 0x6f, 0x65, 0x6e, 0x63, 0x6f, 0x64, 0x65, 0x72, 0x5f, 0x31, \n    0x2f, 0x62, 0x6f, 0x74, 0x74, 0x6c, 0x65, 0x6e, 0x65, 0x63, 0x6b, 0x5f, 0x31, 0x2f, 0x4d, 0x61, \n    0x74, 0x4d, 0x75, 0x6c, 0x3b, 0x74, 0x69, 0x6e, 0x79, 0x6d, 0x6c, 0x5f, 0x61, 0x75, 0x74, 0x6f, \n    0x65, 0x6e, 0x63, 0x6f, 0x64, 0x65, 0x72, 0x5f, 0x31, 0x2f, 0x62, 0x6f, 0x74, 0x74, 0x6c, 0x65, \n    0x6e, 0x65, 0x63, 0x6b, 0x5f, 0x31, 0x2f, 0x52, 0x65, 0x6c, 0x75, 0x3b, 0x74, 0x69, 0x6e, 0x79, \n    0x6d, 0x6c, 0x5f, 0x61, 0x75, 0x74, 0x6f, 0x65, 0x6e, 0x63, 0x6f, 0x64, 0x65, 0x72, 0x5f, 0x31, \n    0x2f, 0x62, 0x6f, 0x74, 0x74, 0x6c, 0x65, 0x6e, 0x65, 0x63, 0x6b, 0x5f, 0x31, 0x2f, 0x42, 0x69, \n    0x61, 0x73, 0x41, 0x64, 0x64, 0x00, 0x00, 0x00, 0x02, 0x00, 0x00, 0x00, 0x01, 0x00, 0x00, 0x00, \n    0x04, 0x00, 0x00, 0x00, 0x52, 0xf8, 0xff, 0xff, 0x00, 0x00, 0x00, 0x01, 0x18, 0x00, 0x00, 0x00, \n    0x20, 0x00, 0x00, 0x00, 0x3c, 0x00, 0x00, 0x00, 0x0a, 0x00, 0x00, 0x00, 0x00, 0x00, 0x00, 0x09, \n    0xa8, 0x00, 0x00, 0x00, 0x02, 0x00, 0x00, 0x00, 0xff, 0xff, 0xff, 0xff, 0x10, 0x00, 0x00, 0x00, \n    0x3c, 0xf8, 0xff, 0xff, 0x08, 0x00, 0x00, 0x00, 0x10, 0x00, 0x00, 0x00, 0x01, 0x00, 0x00, 0x00, \n    0x80, 0xff, 0xff, 0xff, 0xff, 0xff, 0xff, 0xff, 0x01, 0x00, 0x00, 0x00, 0x2a, 0x89, 0xb0, 0x3b, \n    0x73, 0x00, 0x00, 0x00, 0x74, 0x69, 0x6e, 0x79, 0x6d, 0x6c, 0x5f, 0x61, 0x75, 0x74, 0x6f, 0x65, \n    0x6e, 0x63, 0x6f, 0x64, 0x65, 0x72, 0x5f, 0x31, 0x2f, 0x65, 0x6e, 0x63, 0x6f, 0x64, 0x65, 0x5f, \n    0x31, 0x5f, 0x31, 0x2f, 0x4d, 0x61, 0x74, 0x4d, 0x75, 0x6c, 0x3b, 0x74, 0x69, 0x6e, 0x79, 0x6d, \n    0x6c, 0x5f, 0x61, 0x75, 0x74, 0x6f, 0x65, 0x6e, 0x63, 0x6f, 0x64, 0x65, 0x72, 0x5f, 0x31, 0x2f, \n    0x65, 0x6e, 0x63, 0x6f, 0x64, 0x65, 0x5f, 0x31, 0x5f, 0x31, 0x2f, 0x52, 0x65, 0x6c, 0x75, 0x3b, \n    0x74, 0x69, 0x6e, 0x79, 0x6d, 0x6c, 0x5f, 0x61, 0x75, 0x74, 0x6f, 0x65, 0x6e, 0x63, 0x6f, 0x64, \n    0x65, 0x72, 0x5f, 0x31, 0x2f, 0x65, 0x6e, 0x63, 0x6f, 0x64, 0x65, 0x5f, 0x31, 0x5f, 0x31, 0x2f, \n    0x42, 0x69, 0x61, 0x73, 0x41, 0x64, 0x64, 0x00, 0x02, 0x00, 0x00, 0x00, 0x01, 0x00, 0x00, 0x00, \n    0x10, 0x00, 0x00, 0x00, 0xee, 0xf9, 0xff, 0xff, 0x00, 0x00, 0x00, 0x01, 0x14, 0x00, 0x00, 0x00, \n    0xe8, 0x00, 0x00, 0x00, 0x09, 0x00, 0x00, 0x00, 0x00, 0x00, 0x00, 0x09, 0xf4, 0x00, 0x00, 0x00, \n    0xfc, 0xf8, 0xff, 0xff, 0x08, 0x00, 0x00, 0x00, 0x8c, 0x00, 0x00, 0x00, 0x10, 0x00, 0x00, 0x00, \n    0x00, 0x00, 0x00, 0x00, 0x00, 0x00, 0x00, 0x00, 0x00, 0x00, 0x00, 0x00, 0x00, 0x00, 0x00, 0x00, \n    0x00, 0x00, 0x00, 0x00, 0x00, 0x00, 0x00, 0x00, 0x00, 0x00, 0x00, 0x00, 0x00, 0x00, 0x00, 0x00, \n    0x00, 0x00, 0x00, 0x00, 0x00, 0x00, 0x00, 0x00, 0x00, 0x00, 0x00, 0x00, 0x00, 0x00, 0x00, 0x00, \n    0x00, 0x00, 0x00, 0x00, 0x00, 0x00, 0x00, 0x00, 0x00, 0x00, 0x00, 0x00, 0x00, 0x00, 0x00, 0x00, \n    0x00, 0x00, 0x00, 0x00, 0x00, 0x00, 0x00, 0x00, 0x00, 0x00, 0x00, 0x00, 0x00, 0x00, 0x00, 0x00, \n    0x00, 0x00, 0x00, 0x00, 0x00, 0x00, 0x00, 0x00, 0x00, 0x00, 0x00, 0x00, 0x00, 0x00, 0x00, 0x00, \n    0x00, 0x00, 0x00, 0x00, 0x00, 0x00, 0x00, 0x00, 0x00, 0x00, 0x00, 0x00, 0x00, 0x00, 0x00, 0x00, \n    0x00, 0x00, 0x00, 0x00, 0x00, 0x00, 0x00, 0x00, 0x00, 0x00, 0x00, 0x00, 0x00, 0x00, 0x00, 0x00, \n    0x00, 0x00, 0x00, 0x00, 0x10, 0x00, 0x00, 0x00, 0xaa, 0x03, 0x8d, 0x3b, 0xfa, 0x42, 0x45, 0x3b, \n    0x1d, 0x73, 0x83, 0x3b, 0x63, 0x3d, 0x76, 0x3b, 0x02, 0x3d, 0x70, 0x3b, 0x68, 0x5b, 0x79, 0x3b, \n    0x18, 0x04, 0x81, 0x3b, 0xf4, 0xd9, 0x4d, 0x3b, 0x06, 0x32, 0x87, 0x3b, 0x12, 0xef, 0x27, 0x3b, \n    0x7f, 0x0f, 0x7f, 0x3b, 0xcb, 0x82, 0x86, 0x3b, 0x2f, 0x1b, 0x6a, 0x3b, 0xab, 0x0b, 0x5c, 0x3b, \n    0xe6, 0xb2, 0x20, 0x3b, 0x9f, 0x46, 0x5e, 0x3b, 0x12, 0x00, 0x00, 0x00, 0x74, 0x66, 0x6c, 0x2e, \n    0x70, 0x73, 0x65, 0x75, 0x64, 0x6f, 0x5f, 0x71, 0x63, 0x6f, 0x6e, 0x73, 0x74, 0x37, 0x00, 0x00, \n    0x02, 0x00, 0x00, 0x00, 0x10, 0x00, 0x00, 0x00, 0x08, 0x00, 0x00, 0x00, 0x06, 0xfb, 0xff, 0xff, \n    0x00, 0x00, 0x00, 0x01, 0x14, 0x00, 0x00, 0x00, 0xe4, 0x00, 0x00, 0x00, 0x08, 0x00, 0x00, 0x00, \n    0x00, 0x00, 0x00, 0x02, 0xf0, 0x00, 0x00, 0x00, 0x14, 0xfa, 0xff, 0xff, 0x08, 0x00, 0x00, 0x00, \n    0x88, 0x00, 0x00, 0x00, 0x10, 0x00, 0x00, 0x00, 0x00, 0x00, 0x00, 0x00, 0x00, 0x00, 0x00, 0x00, \n    0x00, 0x00, 0x00, 0x00, 0x00, 0x00, 0x00, 0x00, 0x00, 0x00, 0x00, 0x00, 0x00, 0x00, 0x00, 0x00, \n    0x00, 0x00, 0x00, 0x00, 0x00, 0x00, 0x00, 0x00, 0x00, 0x00, 0x00, 0x00, 0x00, 0x00, 0x00, 0x00, \n    0x00, 0x00, 0x00, 0x00, 0x00, 0x00, 0x00, 0x00, 0x00, 0x00, 0x00, 0x00, 0x00, 0x00, 0x00, 0x00, \n    0x00, 0x00, 0x00, 0x00, 0x00, 0x00, 0x00, 0x00, 0x00, 0x00, 0x00, 0x00, 0x00, 0x00, 0x00, 0x00, \n    0x00, 0x00, 0x00, 0x00, 0x00, 0x00, 0x00, 0x00, 0x00, 0x00, 0x00, 0x00, 0x00, 0x00, 0x00, 0x00, \n    0x00, 0x00, 0x00, 0x00, 0x00, 0x00, 0x00, 0x00, 0x00, 0x00, 0x00, 0x00, 0x00, 0x00, 0x00, 0x00, \n    0x00, 0x00, 0x00, 0x00, 0x00, 0x00, 0x00, 0x00, 0x00, 0x00, 0x00, 0x00, 0x00, 0x00, 0x00, 0x00, \n    0x00, 0x00, 0x00, 0x00, 0x00, 0x00, 0x00, 0x00, 0x10, 0x00, 0x00, 0x00, 0x3c, 0x91, 0x8d, 0x37, \n    0x04, 0x09, 0x46, 0x37, 0x15, 0xf7, 0x83, 0x37, 0x99, 0x34, 0x77, 0x37, 0x31, 0x2e, 0x71, 0x37, \n    0xbf, 0x55, 0x7a, 0x37, 0x9e, 0x85, 0x81, 0x37, 0x9d, 0xa8, 0x4e, 0x37, 0xc0, 0xb9, 0x87, 0x37, \n    0xaa, 0x97, 0x28, 0x37, 0xc8, 0x07, 0x80, 0x37, 0xd5, 0x09, 0x87, 0x37, 0x36, 0x06, 0x6b, 0x37, \n    0x94, 0xe8, 0x5c, 0x37, 0x3b, 0x54, 0x21, 0x37, 0xc6, 0x25, 0x5f, 0x37, 0x12, 0x00, 0x00, 0x00, \n    0x74, 0x66, 0x6c, 0x2e, 0x70, 0x73, 0x65, 0x75, 0x64, 0x6f, 0x5f, 0x71, 0x63, 0x6f, 0x6e, 0x73, \n    0x74, 0x36, 0x00, 0x00, 0x01, 0x00, 0x00, 0x00, 0x10, 0x00, 0x00, 0x00, 0x16, 0xfc, 0xff, 0xff, \n    0x00, 0x00, 0x00, 0x01, 0x14, 0x00, 0x00, 0x00, 0x58, 0x00, 0x00, 0x00, 0x07, 0x00, 0x00, 0x00, \n    0x00, 0x00, 0x00, 0x09, 0x64, 0x00, 0x00, 0x00, 0x24, 0xfb, 0xff, 0xff, 0x08, 0x00, 0x00, 0x00, \n    0x2c, 0x00, 0x00, 0x00, 0x04, 0x00, 0x00, 0x00, 0x00, 0x00, 0x00, 0x00, 0x00, 0x00, 0x00, 0x00, \n    0x00, 0x00, 0x00, 0x00, 0x00, 0x00, 0x00, 0x00, 0x00, 0x00, 0x00, 0x00, 0x00, 0x00, 0x00, 0x00, \n    0x00, 0x00, 0x00, 0x00, 0x00, 0x00, 0x00, 0x00, 0x00, 0x00, 0x00, 0x00, 0x04, 0x00, 0x00, 0x00, \n    0x33, 0x56, 0x89, 0x3b, 0xa6, 0x9e, 0x7f, 0x3b, 0xaa, 0x8c, 0x8e, 0x3b, 0xd5, 0xfa, 0x87, 0x3b, \n    0x12, 0x00, 0x00, 0x00, 0x74, 0x66, 0x6c, 0x2e, 0x70, 0x73, 0x65, 0x75, 0x64, 0x6f, 0x5f, 0x71, \n    0x63, 0x6f, 0x6e, 0x73, 0x74, 0x35, 0x00, 0x00, 0x02, 0x00, 0x00, 0x00, 0x04, 0x00, 0x00, 0x00, \n    0x10, 0x00, 0x00, 0x00, 0x9e, 0xfc, 0xff, 0xff, 0x00, 0x00, 0x00, 0x01, 0x14, 0x00, 0x00, 0x00, \n    0x54, 0x00, 0x00, 0x00, 0x06, 0x00, 0x00, 0x00, 0x00, 0x00, 0x00, 0x02, 0x60, 0x00, 0x00, 0x00, \n    0xac, 0xfb, 0xff, 0xff, 0x08, 0x00, 0x00, 0x00, 0x28, 0x00, 0x00, 0x00, 0x04, 0x00, 0x00, 0x00, \n    0x00, 0x00, 0x00, 0x00, 0x00, 0x00, 0x00, 0x00, 0x00, 0x00, 0x00, 0x00, 0x00, 0x00, 0x00, 0x00, \n    0x00, 0x00, 0x00, 0x00, 0x00, 0x00, 0x00, 0x00, 0x00, 0x00, 0x00, 0x00, 0x00, 0x00, 0x00, 0x00, \n    0x04, 0x00, 0x00, 0x00, 0xb1, 0x69, 0xbd, 0x37, 0x08, 0x46, 0xb0, 0x37, 0x2b, 0x9a, 0xc4, 0x37, \n    0x9c, 0x8a, 0xbb, 0x37, 0x12, 0x00, 0x00, 0x00, 0x74, 0x66, 0x6c, 0x2e, 0x70, 0x73, 0x65, 0x75, \n    0x64, 0x6f, 0x5f, 0x71, 0x63, 0x6f, 0x6e, 0x73, 0x74, 0x34, 0x00, 0x00, 0x01, 0x00, 0x00, 0x00, \n    0x04, 0x00, 0x00, 0x00, 0x1e, 0xfd, 0xff, 0xff, 0x00, 0x00, 0x00, 0x01, 0x14, 0x00, 0x00, 0x00, \n    0xe8, 0x00, 0x00, 0x00, 0x05, 0x00, 0x00, 0x00, 0x00, 0x00, 0x00, 0x09, 0xf4, 0x00, 0x00, 0x00, \n    0x2c, 0xfc, 0xff, 0xff, 0x08, 0x00, 0x00, 0x00, 0x8c, 0x00, 0x00, 0x00, 0x10, 0x00, 0x00, 0x00, \n    0x00, 0x00, 0x00, 0x00, 0x00, 0x00, 0x00, 0x00, 0x00, 0x00, 0x00, 0x00, 0x00, 0x00, 0x00, 0x00, \n    0x00, 0x00, 0x00, 0x00, 0x00, 0x00, 0x00, 0x00, 0x00, 0x00, 0x00, 0x00, 0x00, 0x00, 0x00, 0x00, \n    0x00, 0x00, 0x00, 0x00, 0x00, 0x00, 0x00, 0x00, 0x00, 0x00, 0x00, 0x00, 0x00, 0x00, 0x00, 0x00, \n    0x00, 0x00, 0x00, 0x00, 0x00, 0x00, 0x00, 0x00, 0x00, 0x00, 0x00, 0x00, 0x00, 0x00, 0x00, 0x00, \n    0x00, 0x00, 0x00, 0x00, 0x00, 0x00, 0x00, 0x00, 0x00, 0x00, 0x00, 0x00, 0x00, 0x00, 0x00, 0x00, \n    0x00, 0x00, 0x00, 0x00, 0x00, 0x00, 0x00, 0x00, 0x00, 0x00, 0x00, 0x00, 0x00, 0x00, 0x00, 0x00, \n    0x00, 0x00, 0x00, 0x00, 0x00, 0x00, 0x00, 0x00, 0x00, 0x00, 0x00, 0x00, 0x00, 0x00, 0x00, 0x00, \n    0x00, 0x00, 0x00, 0x00, 0x00, 0x00, 0x00, 0x00, 0x00, 0x00, 0x00, 0x00, 0x00, 0x00, 0x00, 0x00, \n    0x00, 0x00, 0x00, 0x00, 0x10, 0x00, 0x00, 0x00, 0x8b, 0x4b, 0x3d, 0x3b, 0x97, 0xc5, 0x81, 0x3b, \n    0x9f, 0xda, 0x8b, 0x3b, 0x80, 0x5e, 0x3e, 0x3b, 0xbd, 0xb0, 0x68, 0x3b, 0xaf, 0xf6, 0x8a, 0x3b, \n    0x98, 0x35, 0x5f, 0x3b, 0x99, 0xf7, 0x8b, 0x3b, 0x2f, 0x40, 0x54, 0x3b, 0xd4, 0xd3, 0x7f, 0x3b, \n    0xfe, 0xdf, 0x8a, 0x3b, 0xc4, 0x69, 0x82, 0x3b, 0xbf, 0x8d, 0x14, 0x3b, 0x9e, 0x2d, 0x46, 0x3b, \n    0x73, 0x9c, 0x68, 0x3b, 0xa3, 0x08, 0x8a, 0x3b, 0x12, 0x00, 0x00, 0x00, 0x74, 0x66, 0x6c, 0x2e, \n    0x70, 0x73, 0x65, 0x75, 0x64, 0x6f, 0x5f, 0x71, 0x63, 0x6f, 0x6e, 0x73, 0x74, 0x33, 0x00, 0x00, \n    0x02, 0x00, 0x00, 0x00, 0x10, 0x00, 0x00, 0x00, 0x04, 0x00, 0x00, 0x00, 0x36, 0xfe, 0xff, 0xff, \n    0x00, 0x00, 0x00, 0x01, 0x14, 0x00, 0x00, 0x00, 0xe4, 0x00, 0x00, 0x00, 0x04, 0x00, 0x00, 0x00, \n    0x00, 0x00, 0x00, 0x02, 0xf0, 0x00, 0x00, 0x00, 0x44, 0xfd, 0xff, 0xff, 0x08, 0x00, 0x00, 0x00, \n    0x88, 0x00, 0x00, 0x00, 0x10, 0x00, 0x00, 0x00, 0x00, 0x00, 0x00, 0x00, 0x00, 0x00, 0x00, 0x00, \n    0x00, 0x00, 0x00, 0x00, 0x00, 0x00, 0x00, 0x00, 0x00, 0x00, 0x00, 0x00, 0x00, 0x00, 0x00, 0x00, \n    0x00, 0x00, 0x00, 0x00, 0x00, 0x00, 0x00, 0x00, 0x00, 0x00, 0x00, 0x00, 0x00, 0x00, 0x00, 0x00, \n    0x00, 0x00, 0x00, 0x00, 0x00, 0x00, 0x00, 0x00, 0x00, 0x00, 0x00, 0x00, 0x00, 0x00, 0x00, 0x00, \n    0x00, 0x00, 0x00, 0x00, 0x00, 0x00, 0x00, 0x00, 0x00, 0x00, 0x00, 0x00, 0x00, 0x00, 0x00, 0x00, \n    0x00, 0x00, 0x00, 0x00, 0x00, 0x00, 0x00, 0x00, 0x00, 0x00, 0x00, 0x00, 0x00, 0x00, 0x00, 0x00, \n    0x00, 0x00, 0x00, 0x00, 0x00, 0x00, 0x00, 0x00, 0x00, 0x00, 0x00, 0x00, 0x00, 0x00, 0x00, 0x00, \n    0x00, 0x00, 0x00, 0x00, 0x00, 0x00, 0x00, 0x00, 0x00, 0x00, 0x00, 0x00, 0x00, 0x00, 0x00, 0x00, \n    0x00, 0x00, 0x00, 0x00, 0x00, 0x00, 0x00, 0x00, 0x10, 0x00, 0x00, 0x00, 0xe9, 0x1a, 0x50, 0x37, \n    0xc8, 0xaa, 0x8e, 0x37, 0x49, 0xc0, 0x99, 0x37, 0x30, 0x49, 0x51, 0x37, 0x03, 0xd0, 0x7f, 0x37, \n    0xb3, 0xc5, 0x98, 0x37, 0xb0, 0x63, 0x75, 0x37, 0x24, 0xe0, 0x99, 0x37, 0x81, 0x57, 0x69, 0x37, \n    0xd6, 0x9f, 0x8c, 0x37, 0xc0, 0xac, 0x98, 0x37, 0x45, 0x5f, 0x8f, 0x37, 0xb7, 0x50, 0x23, 0x37, \n    0xf5, 0xde, 0x59, 0x37, 0xb5, 0xb9, 0x7f, 0x37, 0xff, 0xbf, 0x97, 0x37, 0x12, 0x00, 0x00, 0x00, \n    0x74, 0x66, 0x6c, 0x2e, 0x70, 0x73, 0x65, 0x75, 0x64, 0x6f, 0x5f, 0x71, 0x63, 0x6f, 0x6e, 0x73, \n    0x74, 0x32, 0x00, 0x00, 0x01, 0x00, 0x00, 0x00, 0x10, 0x00, 0x00, 0x00, 0x46, 0xff, 0xff, 0xff, \n    0x00, 0x00, 0x00, 0x01, 0x14, 0x00, 0x00, 0x00, 0x88, 0x00, 0x00, 0x00, 0x03, 0x00, 0x00, 0x00, \n    0x00, 0x00, 0x00, 0x09, 0x94, 0x00, 0x00, 0x00, 0x54, 0xfe, 0xff, 0xff, 0x08, 0x00, 0x00, 0x00, \n    0x4c, 0x00, 0x00, 0x00, 0x08, 0x00, 0x00, 0x00, 0x00, 0x00, 0x00, 0x00, 0x00, 0x00, 0x00, 0x00, \n    0x00, 0x00, 0x00, 0x00, 0x00, 0x00, 0x00, 0x00, 0x00, 0x00, 0x00, 0x00, 0x00, 0x00, 0x00, 0x00, \n    0x00, 0x00, 0x00, 0x00, 0x00, 0x00, 0x00, 0x00, 0x00, 0x00, 0x00, 0x00, 0x00, 0x00, 0x00, 0x00, \n    0x00, 0x00, 0x00, 0x00, 0x00, 0x00, 0x00, 0x00, 0x00, 0x00, 0x00, 0x00, 0x00, 0x00, 0x00, 0x00, \n    0x00, 0x00, 0x00, 0x00, 0x00, 0x00, 0x00, 0x00, 0x00, 0x00, 0x00, 0x00, 0x08, 0x00, 0x00, 0x00, \n    0x28, 0x8e, 0x7a, 0x3b, 0xab, 0xa9, 0x8e, 0x3b, 0xe9, 0xda, 0x94, 0x3b, 0xca, 0x88, 0x69, 0x3b, \n    0xe8, 0xd1, 0x97, 0x3b, 0x0c, 0x37, 0x9b, 0x3b, 0x62, 0xdf, 0x77, 0x3b, 0x34, 0x5e, 0x82, 0x3b, \n    0x12, 0x00, 0x00, 0x00, 0x74, 0x66, 0x6c, 0x2e, 0x70, 0x73, 0x65, 0x75, 0x64, 0x6f, 0x5f, 0x71, \n    0x63, 0x6f, 0x6e, 0x73, 0x74, 0x31, 0x00, 0x00, 0x02, 0x00, 0x00, 0x00, 0x08, 0x00, 0x00, 0x00, \n    0x10, 0x00, 0x00, 0x00, 0x00, 0x00, 0x16, 0x00, 0x1c, 0x00, 0x18, 0x00, 0x17, 0x00, 0x10, 0x00, \n    0x0c, 0x00, 0x08, 0x00, 0x00, 0x00, 0x00, 0x00, 0x00, 0x00, 0x07, 0x00, 0x16, 0x00, 0x00, 0x00, \n    0x00, 0x00, 0x00, 0x01, 0x14, 0x00, 0x00, 0x00, 0x88, 0x00, 0x00, 0x00, 0x02, 0x00, 0x00, 0x00, \n    0x00, 0x00, 0x00, 0x02, 0x94, 0x00, 0x00, 0x00, 0x24, 0xff, 0xff, 0xff, 0x08, 0x00, 0x00, 0x00, \n    0x4c, 0x00, 0x00, 0x00, 0x08, 0x00, 0x00, 0x00, 0x00, 0x00, 0x00, 0x00, 0x00, 0x00, 0x00, 0x00, \n    0x00, 0x00, 0x00, 0x00, 0x00, 0x00, 0x00, 0x00, 0x00, 0x00, 0x00, 0x00, 0x00, 0x00, 0x00, 0x00, \n    0x00, 0x00, 0x00, 0x00, 0x00, 0x00, 0x00, 0x00, 0x00, 0x00, 0x00, 0x00, 0x00, 0x00, 0x00, 0x00, \n    0x00, 0x00, 0x00, 0x00, 0x00, 0x00, 0x00, 0x00, 0x00, 0x00, 0x00, 0x00, 0x00, 0x00, 0x00, 0x00, \n    0x00, 0x00, 0x00, 0x00, 0x00, 0x00, 0x00, 0x00, 0x00, 0x00, 0x00, 0x00, 0x08, 0x00, 0x00, 0x00, \n    0x3a, 0x11, 0x06, 0x37, 0x14, 0xac, 0x18, 0x37, 0x8b, 0x4c, 0x1f, 0x37, 0x5f, 0xeb, 0xf9, 0x36, \n    0xca, 0x78, 0x22, 0x37, 0xe9, 0x1a, 0x26, 0x37, 0xc0, 0xa1, 0x04, 0x37, 0xc8, 0x83, 0x0b, 0x37, \n    0x11, 0x00, 0x00, 0x00, 0x74, 0x66, 0x6c, 0x2e, 0x70, 0x73, 0x65, 0x75, 0x64, 0x6f, 0x5f, 0x71, \n    0x63, 0x6f, 0x6e, 0x73, 0x74, 0x00, 0x00, 0x00, 0x01, 0x00, 0x00, 0x00, 0x08, 0x00, 0x00, 0x00, \n    0x00, 0x00, 0x16, 0x00, 0x20, 0x00, 0x1c, 0x00, 0x1b, 0x00, 0x14, 0x00, 0x10, 0x00, 0x0c, 0x00, \n    0x00, 0x00, 0x00, 0x00, 0x08, 0x00, 0x07, 0x00, 0x16, 0x00, 0x00, 0x00, 0x00, 0x00, 0x00, 0x01, \n    0x18, 0x00, 0x00, 0x00, 0x2c, 0x00, 0x00, 0x00, 0x4c, 0x00, 0x00, 0x00, 0x01, 0x00, 0x00, 0x00, \n    0x00, 0x00, 0x00, 0x09, 0x5c, 0x00, 0x00, 0x00, 0x02, 0x00, 0x00, 0x00, 0xff, 0xff, 0xff, 0xff, \n    0x08, 0x00, 0x00, 0x00, 0x0c, 0x00, 0x0c, 0x00, 0x00, 0x00, 0x00, 0x00, 0x08, 0x00, 0x04, 0x00, \n    0x0c, 0x00, 0x00, 0x00, 0x08, 0x00, 0x00, 0x00, 0x14, 0x00, 0x00, 0x00, 0x01, 0x00, 0x00, 0x00, \n    0x80, 0xff, 0xff, 0xff, 0xff, 0xff, 0xff, 0xff, 0x00, 0x00, 0x00, 0x00, 0x01, 0x00, 0x00, 0x00, \n    0x81, 0x80, 0x80, 0x3b, 0x17, 0x00, 0x00, 0x00, 0x73, 0x65, 0x72, 0x76, 0x69, 0x6e, 0x67, 0x5f, \n    0x64, 0x65, 0x66, 0x61, 0x75, 0x6c, 0x74, 0x5f, 0x69, 0x6e, 0x70, 0x75, 0x74, 0x3a, 0x30, 0x00, \n    0x02, 0x00, 0x00, 0x00, 0x01, 0x00, 0x00, 0x00, 0x08, 0x00, 0x00, 0x00, 0x01, 0x00, 0x00, 0x00, \n    0x10, 0x00, 0x00, 0x00, 0x0c, 0x00, 0x10, 0x00, 0x0f, 0x00, 0x00, 0x00, 0x08, 0x00, 0x04, 0x00, \n    0x0c, 0x00, 0x00, 0x00, 0x09, 0x00, 0x00, 0x00, 0x04, 0x00, 0x00, 0x00, 0x00, 0x00, 0x00, 0x09\n
};

const unsigned int model_data_len = 4272;

// Model metadata
#define MODEL_INPUT_SIZE 8
#define MODEL_OUTPUT_SIZE 8
#define MODEL_SIZE_BYTES 4272
#define MODEL_QUANTIZATION_INT8

// Anomaly detection threshold (Q14 fixed-point)
#define ANOMALY_THRESHOLD_FIXED 3918

#endif // MODEL_DATA_H
