/*
 * Auto-generated TensorFlow Lite model data for STM32 deployment
 * Generated on: 2025-09-26 03:09:07
 * Model: NASA Bearing Fault Detection (TinyML Optimized)
 * Size: 4272 bytes (4.2 KB)
 * Quantization: INT8
 */

#ifndef MODEL_DATA_H
#define MODEL_DATA_H

#include <stdint.h>

// Model data array
const unsigned char model_data[] = {
    0x20, 0x00, 0x00, 0x00, 0x54, 0x46, 0x4c, 0x33, 0x00, 0x00, 0x00, 0x00, 0x14, 0x00, 0x20, 0x00, 
    0x1c, 0x00, 0x18, 0x00, 0x14, 0x00, 0x10, 0x00, 0x0c, 0x00, 0x00, 0x00, 0x08, 0x00, 0x04, 0x00, 
    0x14, 0x00, 0x00, 0x00, 0x1c, 0x00, 0x00, 0x00, 0x90, 0x00, 0x00, 0x00, 0xe8, 0x00, 0x00, 0x00, 
    0x60, 0x04, 0x00, 0x00, 0x70, 0x04, 0x00, 0x00, 0x54, 0x10, 0x00, 0x00, 0x03, 0x00, 0x00, 0x00, 
    0x01, 0x00, 0x00, 0x00, 0x10, 0x00, 0x00, 0x00, 0x00, 0x00, 0x0a, 0x00, 0x10, 0x00, 0x0c, 0x00, 
    0x08, 0x00, 0x04, 0x00, 0x0a, 0x00, 0x00, 0x00, 0x0c, 0x00, 0x00, 0x00, 0x1c, 0x00, 0x00, 0x00, 
    0x3c, 0x00, 0x00, 0x00, 0x0f, 0x00, 0x00, 0x00, 0x73, 0x65, 0x72, 0x76, 0x69, 0x6e, 0x67, 0x5f, 
    0x64, 0x65, 0x66, 0x61, 0x75, 0x6c, 0x74, 0x00, 0x01, 0x00, 0x00, 0x00, 0x04, 0x00, 0x00, 0x00, 
    0x98, 0xff, 0xff, 0xff, 0x0c, 0x00, 0x00, 0x00, 0x04, 0x00, 0x00, 0x00, 0x08, 0x00, 0x00, 0x00, 
    0x6f, 0x75, 0x74, 0x70, 0x75, 0x74, 0x5f, 0x30, 0x00, 0x00, 0x00, 0x00, 0x01, 0x00, 0x00, 0x00, 
    0x04, 0x00, 0x00, 0x00, 0x4e, 0xfc, 0xff, 0xff, 0x04, 0x00, 0x00, 0x00, 0x05, 0x00, 0x00, 0x00, 
    0x69, 0x6e, 0x70, 0x75, 0x74, 0x00, 0x00, 0x00, 0x02, 0x00, 0x00, 0x00, 0x34, 0x00, 0x00, 0x00, 
    0x04, 0x00, 0x00, 0x00, 0xdc, 0xff, 0xff, 0xff, 0x0f, 0x00, 0x00, 0x00, 0x04, 0x00, 0x00, 0x00, 
    0x13, 0x00, 0x00, 0x00, 0x43, 0x4f, 0x4e, 0x56, 0x45, 0x52, 0x53, 0x49, 0x4f, 0x4e, 0x5f, 0x4d, 
    0x45, 0x54, 0x41, 0x44, 0x41, 0x54, 0x41, 0x00, 0x08, 0x00, 0x0c, 0x00, 0x08, 0x00, 0x04, 0x00, 
    0x08, 0x00, 0x00, 0x00, 0x0e, 0x00, 0x00, 0x00, 0x04, 0x00, 0x00, 0x00, 0x13, 0x00, 0x00, 0x00, 
    0x6d, 0x69, 0x6e, 0x5f, 0x72, 0x75, 0x6e, 0x74, 0x69, 0x6d, 0x65, 0x5f, 0x76, 0x65, 0x72, 0x73, 
    0x69, 0x6f, 0x6e, 0x00, 0x10, 0x00, 0x00, 0x00, 0x74, 0x03, 0x00, 0x00, 0x6c, 0x03, 0x00, 0x00, 
    0x3c, 0x03, 0x00, 0x00, 0xa4, 0x02, 0x00, 0x00, 0x54, 0x02, 0x00, 0x00, 0x04, 0x02, 0x00, 0x00, 
    0xe4, 0x01, 0x00, 0x00, 0x94, 0x01, 0x00, 0x00, 0x44, 0x01, 0x00, 0x00, 0xb4, 0x00, 0x00, 0x00, 
    0xac, 0x00, 0x00, 0x00, 0xa4, 0x00, 0x00, 0x00, 0x9c, 0x00, 0x00, 0x00, 0x94, 0x00, 0x00, 0x00, 
    0x74, 0x00, 0x00, 0x00, 0x04, 0x00, 0x00, 0x00, 0x02, 0xfd, 0xff, 0xff, 0x04, 0x00, 0x00, 0x00, 
    0x60, 0x00, 0x00, 0x00, 0x0c, 0x00, 0x00, 0x00, 0x08, 0x00, 0x0e, 0x00, 0x08, 0x00, 0x04, 0x00, 
    0x08, 0x00, 0x00, 0x00, 0x10, 0x00, 0x00, 0x00, 0x28, 0x00, 0x00, 0x00, 0x00, 0x00, 0x06, 0x00, 
    0x08, 0x00, 0x04, 0x00, 0x06, 0x00, 0x00, 0x00, 0x04, 0x00, 0x00, 0x00, 0x01, 0x00, 0x00, 0x00, 
    0xeb, 0x03, 0x00, 0x00, 0x0c, 0x00, 0x18, 0x00, 0x14, 0x00, 0x10, 0x00, 0x0c, 0x00, 0x04, 0x00, 
    0x0c, 0x00, 0x00, 0x00, 0x43, 0xbe, 0xd7, 0xb2, 0xaa, 0x83, 0x87, 0xbc, 0x02, 0x00, 0x00, 0x00, 
    0x02, 0x00, 0x00, 0x00, 0x04, 0x00, 0x00, 0x00, 0x06, 0x00, 0x00, 0x00, 0x32, 0x2e, 0x32, 0x30, 
    0x2e, 0x30, 0x00, 0x00, 0x6e, 0xfd, 0xff, 0xff, 0x04, 0x00, 0x00, 0x00, 0x10, 0x00, 0x00, 0x00, 
    0x31, 0x2e, 0x31, 0x34, 0x2e, 0x30, 0x00, 0x00, 0x00, 0x00, 0x00, 0x00, 0x00, 0x00, 0x00, 0x00, 
    0xd8, 0xfc, 0xff, 0xff, 0xdc, 0xfc, 0xff, 0xff, 0xe0, 0xfc, 0xff, 0xff, 0xe4, 0xfc, 0xff, 0xff, 
    0x9a, 0xfd, 0xff, 0xff, 0x04, 0x00, 0x00, 0x00, 0x80, 0x00, 0x00, 0x00, 0x5e, 0x96, 0xb5, 0x0b, 
    0x2d, 0x81, 0xd6, 0xfc, 0x9c, 0x6e, 0xc3, 0xaa, 0x81, 0xcf, 0xd6, 0x17, 0x6a, 0x20, 0x8e, 0xbd, 
    0xff, 0xdc, 0x60, 0x7f, 0xdc, 0xb7, 0x81, 0x5a, 0xff, 0xa8, 0x16, 0xd9, 0x1f, 0x30, 0xe8, 0xbc, 
    0xc8, 0x7f, 0xe0, 0xf6, 0x3c, 0xd4, 0x0c, 0xf4, 0x81, 0xc8, 0x8c, 0x9a, 0x79, 0x3a, 0x0c, 0x58, 
    0xff, 0x2f, 0x81, 0xcf, 0x95, 0x81, 0x9d, 0x11, 0x05, 0x8b, 0x19, 0x2c, 0x41, 0x7f, 0x34, 0x0d, 
    0x2c, 0x42, 0x54, 0x16, 0xf2, 0x32, 0xa0, 0x6d, 0x8f, 0xd1, 0xe3, 0x81, 0xd9, 0x62, 0x17, 0xd2, 
    0x09, 0xac, 0xc1, 0x7f, 0x7f, 0x41, 0xd0, 0x97, 0xd8, 0x0b, 0xf0, 0x76, 0x7f, 0x4b, 0xb9, 0xf3, 
    0x59, 0x09, 0xbe, 0xf1, 0x26, 0x72, 0x21, 0x08, 0xe0, 0x03, 0x5f, 0x7f, 0xa3, 0x3e, 0x60, 0x08, 
    0x2b, 0xd2, 0x8b, 0x7f, 0x2c, 0xca, 0xe9, 0x11, 0xf8, 0x7f, 0x1f, 0x56, 0x26, 0xfe, 0xff, 0xff, 
    0x04, 0x00, 0x00, 0x00, 0x40, 0x00, 0x00, 0x00, 0xfe, 0xe4, 0xff, 0xff, 0x00, 0x00, 0x00, 0x00, 
    0x5c, 0x48, 0x00, 0x00, 0x00, 0x00, 0x00, 0x00, 0x26, 0x3b, 0x00, 0x00, 0x00, 0x00, 0x00, 0x00, 
    0x49, 0x3a, 0x00, 0x00, 0x00, 0x00, 0x00, 0x00, 0xa3, 0x22, 0x00, 0x00, 0x00, 0x00, 0x00, 0x00, 
    0x1d, 0xfc, 0xff, 0xff, 0xed, 0x16, 0x00, 0x00, 0x96, 0x26, 0x00, 0x00, 0x10, 0xe9, 0xff, 0xff, 
    0x9a, 0x04, 0x00, 0x00, 0x1c, 0x00, 0x00, 0x00, 0x72, 0xfe, 0xff, 0xff, 0x04, 0x00, 0x00, 0x00, 
    0x40, 0x00, 0x00, 0x00, 0xc3, 0xdc, 0x90, 0xce, 0x81, 0x18, 0x3c, 0x22, 0x5a, 0x66, 0x44, 0xfb, 
    0x62, 0x46, 0x44, 0x06, 0xce, 0xde, 0x7a, 0x37, 0xc7, 0xbc, 0xa6, 0x4d, 0x33, 0x9d, 0x67, 0xe8, 
    0xcb, 0x7f, 0xf8, 0x2f, 0x84, 0x2f, 0x60, 0x67, 0xd4, 0x14, 0xbf, 0xea, 0x58, 0xd2, 0x30, 0x92, 
    0x8f, 0x02, 0x05, 0x81, 0x25, 0xac, 0xe5, 0x19, 0x61, 0x66, 0x9f, 0x60, 0x7f, 0x21, 0x13, 0x97, 
    0xb1, 0xc6, 0xe9, 0x4b, 0xbe, 0xfe, 0xff, 0xff, 0x04, 0x00, 0x00, 0x00, 0x10, 0x00, 0x00, 0x00, 
    0x11, 0x02, 0x00, 0x00, 0x45, 0x01, 0x00, 0x00, 0xc1, 0x2f, 0x00, 0x00, 0xd2, 0x13, 0x00, 0x00, 
    0xda, 0xfe, 0xff, 0xff, 0x04, 0x00, 0x00, 0x00, 0x40, 0x00, 0x00, 0x00, 0x7a, 0x56, 0xec, 0x81, 
    0xe9, 0x81, 0x4c, 0xc0, 0x0f, 0x7f, 0xa6, 0xbc, 0x27, 0x3a, 0xbf, 0x7f, 0xa5, 0xad, 0xf9, 0x7f, 
    0x16, 0x7f, 0x01, 0x0b, 0xe8, 0x1e, 0x81, 0x6b, 0x4c, 0x06, 0x24, 0x7f, 0x7f, 0xaf, 0x1d, 0x42, 
    0xee, 0xca, 0xe8, 0x81, 0x2b, 0x50, 0x81, 0xcc, 0x99, 0x8d, 0xa9, 0x81, 0x65, 0x7f, 0xe7, 0xc8, 
    0xf4, 0x24, 0x7f, 0x03, 0xac, 0xc7, 0x81, 0xef, 0xa0, 0x36, 0x81, 0xf2, 0x26, 0xff, 0xff, 0xff, 
    0x04, 0x00, 0x00, 0x00, 0x40, 0x00, 0x00, 0x00, 0xbe, 0x08, 0x00, 0x00, 0x00, 0x00, 0x00, 0x00, 
    0xc4, 0xf0, 0xff, 0xff, 0xe6, 0xdf, 0xff, 0xff, 0xc4, 0x29, 0x00, 0x00, 0xd5, 0x08, 0x00, 0x00, 
    0x91, 0x18, 0x00, 0x00, 0xe9, 0x06, 0x00, 0x00, 0xeb, 0x0c, 0x00, 0x00, 0x00, 0x00, 0x00, 0x00, 
    0x52, 0x20, 0x00, 0x00, 0x00, 0x00, 0x00, 0x00, 0xe1, 0x05, 0x00, 0x00, 0x69, 0xfb, 0xff, 0xff, 
    0x00, 0x00, 0x00, 0x00, 0xfb, 0xef, 0xff, 0xff, 0x72, 0xff, 0xff, 0xff, 0x04, 0x00, 0x00, 0x00, 
    0x80, 0x00, 0x00, 0x00, 0x16, 0xe9, 0x81, 0xd4, 0xbc, 0x2d, 0x01, 0x1f, 0xfd, 0xdc, 0x53, 0x37, 
    0x2e, 0xbd, 0xee, 0x0d, 0x1d, 0x59, 0xd6, 0x01, 0xda, 0xf8, 0xf1, 0x0e, 0x65, 0x1d, 0x09, 0xfd, 
    0x7f, 0xef, 0x18, 0x2c, 0xfb, 0x38, 0x60, 0x2a, 0xf7, 0x11, 0x97, 0x46, 0x7f, 0x67, 0x98, 0xf2, 
    0x65, 0xe4, 0x96, 0xbc, 0xdb, 0x1d, 0x16, 0x0e, 0xeb, 0x35, 0xdf, 0xe8, 0x7f, 0x2f, 0xf1, 0xc0, 
    0x02, 0xe4, 0xf3, 0x37, 0x35, 0x63, 0xe7, 0x1f, 0x81, 0xe1, 0xdb, 0x2f, 0x64, 0x36, 0x6f, 0x91, 
    0xcf, 0x10, 0x90, 0xb5, 0xee, 0xc3, 0xf9, 0x51, 0x2f, 0xda, 0x7f, 0x40, 0xf9, 0x58, 0x12, 0x0f, 
    0x0e, 0xb4, 0xd0, 0x28, 0x81, 0xf9, 0x91, 0xf3, 0xba, 0x74, 0x1b, 0x62, 0xae, 0x2e, 0xcf, 0xee, 
    0x46, 0x49, 0x18, 0xf4, 0x65, 0x02, 0x63, 0x55, 0x42, 0x6c, 0xc5, 0xdb, 0x81, 0x51, 0x6d, 0x54, 
    0xe9, 0xe6, 0x2e, 0xaa, 0x00, 0x00, 0x06, 0x00, 0x08, 0x00, 0x04, 0x00, 0x06, 0x00, 0x00, 0x00, 
    0x04, 0x00, 0x00, 0x00, 0x20, 0x00, 0x00, 0x00, 0x93, 0x12, 0x00, 0x00, 0x7a, 0xfd, 0xff, 0xff, 
    0xba, 0xff, 0xff, 0xff, 0x47, 0x00, 0x00, 0x00, 0xdf, 0x11, 0x00, 0x00, 0x01, 0x04, 0x00, 0x00, 
    0xd9, 0x05, 0x00, 0x00, 0x10, 0x0b, 0x00, 0x00, 0x80, 0xff, 0xff, 0xff, 0x84, 0xff, 0xff, 0xff, 
    0x0f, 0x00, 0x00, 0x00, 0x4d, 0x4c, 0x49, 0x52, 0x20, 0x43, 0x6f, 0x6e, 0x76, 0x65, 0x72, 0x74, 
    0x65, 0x64, 0x2e, 0x00, 0x01, 0x00, 0x00, 0x00, 0x14, 0x00, 0x00, 0x00, 0x00, 0x00, 0x0e, 0x00, 
    0x18, 0x00, 0x14, 0x00, 0x10, 0x00, 0x0c, 0x00, 0x08, 0x00, 0x04, 0x00, 0x0e, 0x00, 0x00, 0x00, 
    0x14, 0x00, 0x00, 0x00, 0x1c, 0x00, 0x00, 0x00, 0x14, 0x01, 0x00, 0x00, 0x18, 0x01, 0x00, 0x00, 
    0x1c, 0x01, 0x00, 0x00, 0x04, 0x00, 0x00, 0x00, 0x6d, 0x61, 0x69, 0x6e, 0x00, 0x00, 0x00, 0x00, 
    0x04, 0x00, 0x00, 0x00, 0xbc, 0x00, 0x00, 0x00, 0x74, 0x00, 0x00, 0x00, 0x3c, 0x00, 0x00, 0x00, 
    0x04, 0x00, 0x00, 0x00, 0x62, 0xff, 0xff, 0xff, 0x14, 0x00, 0x00, 0x00, 0x00, 0x00, 0x00, 0x08, 
    0x10, 0x00, 0x00, 0x00, 0x14, 0x00, 0x00, 0x00, 0x04, 0x00, 0x04, 0x00, 0x04, 0x00, 0x00, 0x00, 
    0x01, 0x00, 0x00, 0x00, 0x0c, 0x00, 0x00, 0x00, 0x03, 0x00, 0x00, 0x00, 0x0b, 0x00, 0x00, 0x00, 
    0x02, 0x00, 0x00, 0x00, 0x01, 0x00, 0x00, 0x00, 0x96, 0xff, 0xff, 0xff, 0x10, 0x00, 0x00, 0x00, 
    0x00, 0x00, 0x00, 0x08, 0x10, 0x00, 0x00, 0x00, 0x14, 0x00, 0x00, 0x00, 0x86, 0xff, 0xff, 0xff, 
    0x00, 0x00, 0x00, 0x01, 0x01, 0x00, 0x00, 0x00, 0x0b, 0x00, 0x00, 0x00, 0x03, 0x00, 0x00, 0x00, 
    0x0a, 0x00, 0x00, 0x00, 0x04, 0x00, 0x00, 0x00, 0x03, 0x00, 0x00, 0x00, 0xca, 0xff, 0xff, 0xff, 
    0x10, 0x00, 0x00, 0x00, 0x00, 0x00, 0x00, 0x08, 0x10, 0x00, 0x00, 0x00, 0x14, 0x00, 0x00, 0x00, 
    0xba, 0xff, 0xff, 0xff, 0x00, 0x00, 0x00, 0x01, 0x01, 0x00, 0x00, 0x00, 0x0a, 0x00, 0x00, 0x00, 
    0x03, 0x00, 0x00, 0x00, 0x09, 0x00, 0x00, 0x00, 0x06, 0x00, 0x00, 0x00, 0x05, 0x00, 0x00, 0x00, 
    0x00, 0x00, 0x0e, 0x00, 0x16, 0x00, 0x00, 0x00, 0x10, 0x00, 0x0c, 0x00, 0x0b, 0x00, 0x04, 0x00, 
    0x0e, 0x00, 0x00, 0x00, 0x18, 0x00, 0x00, 0x00, 0x00, 0x00, 0x00, 0x08, 0x18, 0x00, 0x00, 0x00, 
    0x1c, 0x00, 0x00, 0x00, 0x00, 0x00, 0x06, 0x00, 0x08, 0x00, 0x07, 0x00, 0x06, 0x00, 0x00, 0x00, 
    0x00, 0x00, 0x00, 0x01, 0x01, 0x00, 0x00, 0x00, 0x09, 0x00, 0x00, 0x00, 0x03, 0x00, 0x00, 0x00, 
    0x00, 0x00, 0x00, 0x00, 0x08, 0x00, 0x00, 0x00, 0x07, 0x00, 0x00, 0x00, 0x01, 0x00, 0x00, 0x00, 
    0x0c, 0x00, 0x00, 0x00, 0x01, 0x00, 0x00, 0x00, 0x00, 0x00, 0x00, 0x00, 0x0d, 0x00, 0x00, 0x00, 
    0x18, 0x0a, 0x00, 0x00, 0x48, 0x09, 0x00, 0x00, 0x74, 0x08, 0x00, 0x00, 0x60, 0x07, 0x00, 0x00, 
    0x44, 0x06, 0x00, 0x00, 0xc0, 0x05, 0x00, 0x00, 0x34, 0x05, 0x00, 0x00, 0x20, 0x04, 0x00, 0x00, 
    0x04, 0x03, 0x00, 0x00, 0x30, 0x02, 0x00, 0x00, 0x54, 0x01, 0x00, 0x00, 0x80, 0x00, 0x00, 0x00, 
    0x04, 0x00, 0x00, 0x00, 0x32, 0xf6, 0xff, 0xff, 0x00, 0x00, 0x00, 0x01, 0x18, 0x00, 0x00, 0x00, 
    0x20, 0x00, 0x00, 0x00, 0x3c, 0x00, 0x00, 0x00, 0x0d, 0x00, 0x00, 0x00, 0x00, 0x00, 0x00, 0x09, 
    0x50, 0x00, 0x00, 0x00, 0x02, 0x00, 0x00, 0x00, 0xff, 0xff, 0xff, 0xff, 0x08, 0x00, 0x00, 0x00, 
    0x1c, 0xf6, 0xff, 0xff, 0x08, 0x00, 0x00, 0x00, 0x10, 0x00, 0x00, 0x00, 0x01, 0x00, 0x00, 0x00, 
    0x9c, 0xff, 0xff, 0xff, 0xff, 0xff, 0xff, 0xff, 0x01, 0x00, 0x00, 0x00, 0x67, 0x67, 0x96, 0x3b, 
    0x1b, 0x00, 0x00, 0x00, 0x53, 0x74, 0x61, 0x74, 0x65, 0x66, 0x75, 0x6c, 0x50, 0x61, 0x72, 0x74, 
    0x69, 0x74, 0x69, 0x6f, 0x6e, 0x65, 0x64, 0x43, 0x61, 0x6c, 0x6c, 0x5f, 0x31, 0x3a, 0x30, 0x00, 
    0x02, 0x00, 0x00, 0x00, 0x01, 0x00, 0x00, 0x00, 0x08, 0x00, 0x00, 0x00, 0xaa, 0xf6, 0xff, 0xff, 
    0x00, 0x00, 0x00, 0x01, 0x18, 0x00, 0x00, 0x00, 0x20, 0x00, 0x00, 0x00, 0x3c, 0x00, 0x00, 0x00, 
    0x0c, 0x00, 0x00, 0x00, 0x00, 0x00, 0x00, 0x09, 0xa8, 0x00, 0x00, 0x00, 0x02, 0x00, 0x00, 0x00, 
    0xff, 0xff, 0xff, 0xff, 0x10, 0x00, 0x00, 0x00, 0x94, 0xf6, 0xff, 0xff, 0x08, 0x00, 0x00, 0x00, 
    0x10, 0x00, 0x00, 0x00, 0x01, 0x00, 0x00, 0x00, 0x80, 0xff, 0xff, 0xff, 0xff, 0xff, 0xff, 0xff, 
    0x01, 0x00, 0x00, 0x00, 0x98, 0x73, 0xab, 0x3b, 0x73, 0x00, 0x00, 0x00, 0x74, 0x69, 0x6e, 0x79, 
    0x6d, 0x6c, 0x5f, 0x61, 0x75, 0x74, 0x6f, 0x65, 0x6e, 0x63, 0x6f, 0x64, 0x65, 0x72, 0x5f, 0x31, 
    0x2f, 0x64, 0x65, 0x63, 0x6f, 0x64, 0x65, 0x5f, 0x31, 0x5f, 0x31, 0x2f, 0x4d, 0x61, 0x74, 0x4d, 
    0x75, 0x6c, 0x3b, 0x74, 0x69, 0x6e, 0x79, 0x6d, 0x6c, 0x5f, 0x61, 0x75, 0x74, 0x6f, 0x65, 0x6e, 
    0x63, 0x6f, 0x64, 0x65, 0x72, 0x5f, 0x31, 0x2f, 0x64, 0x65, 0x63, 0x6f, 0x64, 0x65, 0x5f, 0x31, 
    0x5f, 0x31, 0x2f, 0x52, 0x65, 0x6c, 0x75, 0x3b, 0x74, 0x69, 0x6e, 0x79, 0x6d, 0x6c, 0x5f, 0x61, 
    0x75, 0x74, 0x6f, 0x65, 0x6e, 0x63, 0x6f, 0x64, 0x65, 0x72, 0x5f, 0x31, 0x2f, 0x64, 0x65, 0x63, 
    0x6f, 0x64, 0x65, 0x5f, 0x31, 0x5f, 0x31, 0x2f, 0x42, 0x69, 0x61, 0x73, 0x41, 0x64, 0x64, 0x00, 
    0x02, 0x00, 0x00, 0x00, 0x01, 0x00, 0x00, 0x00, 0x10, 0x00, 0x00, 0x00, 0x7a, 0xf7, 0xff, 0xff, 
    0x00, 0x00, 0x00, 0x01, 0x18, 0x00, 0x00, 0x00, 0x20, 0x00, 0x00, 0x00, 0x3c, 0x00, 0x00, 0x00, 
    0x0b, 0x00, 0x00, 0x00, 0x00, 0x00, 0x00, 0x09, 0xb0, 0x00, 0x00, 0x00, 0x02, 0x00, 0x00, 0x00, 
    0xff, 0xff, 0xff, 0xff, 0x04, 0x00, 0x00, 0x00, 0x64, 0xf7, 0xff, 0xff, 0x08, 0x00, 0x00, 0x00, 
    0x10, 0x00, 0x00, 0x00, 0x01, 0x00, 0x00, 0x00, 0x80, 0xff, 0xff, 0xff, 0xff, 0xff, 0xff, 0xff, 
    0x01, 0x00, 0x00, 0x00, 0xf0, 0xf0, 0xd2, 0x3b, 0x79, 0x00, 0x00, 0x00, 0x74, 0x69, 0x6e, 0x79, 
    0x6d, 0x6c, 0x5f, 0x61, 0x75, 0x74, 0x6f, 0x65, 0x6e, 0x63, 0x6f, 0x64, 0x65, 0x72, 0x5f, 0x31, 
    0x2f, 0x62, 0x6f, 0x74, 0x74, 0x6c, 0x65, 0x6e, 0x65, 0x63, 0x6b, 0x5f, 0x31, 0x2f, 0x4d, 0x61, 
    0x74, 0x4d, 0x75, 0x6c, 0x3b, 0x74, 0x69, 0x6e, 0x79, 0x6d, 0x6c, 0x5f, 0x61, 0x75, 0x74, 0x6f, 
    0x65, 0x6e, 0x63, 0x6f, 0x64, 0x65, 0x72, 0x5f, 0x31, 0x2f, 0x62, 0x6f, 0x74, 0x74, 0x6c, 0x65, 
    0x6e, 0x65, 0x63, 0x6b, 0x5f, 0x31, 0x2f, 0x52, 0x65, 0x6c, 0x75, 0x3b, 0x74, 0x69, 0x6e, 0x79, 
    0x6d, 0x6c, 0x5f, 0x61, 0x75, 0x74, 0x6f, 0x65, 0x6e, 0x63, 0x6f, 0x64, 0x65, 0x72, 0x5f, 0x31, 
    0x2f, 0x62, 0x6f, 0x74, 0x74, 0x6c, 0x65, 0x6e, 0x65, 0x63, 0x6b, 0x5f, 0x31, 0x2f, 0x42, 0x69, 
    0x61, 0x73, 0x41, 0x64, 0x64, 0x00, 0x00, 0x00, 0x02, 0x00, 0x00, 0x00, 0x01, 0x00, 0x00, 0x00, 
    0x04, 0x00, 0x00, 0x00, 0x52, 0xf8, 0xff, 0xff, 0x00, 0x00, 0x00, 0x01, 0x18, 0x00, 0x00, 0x00, 
    0x20, 0x00, 0x00, 0x00, 0x3c, 0x00, 0x00, 0x00, 0x0a, 0x00, 0x00, 0x00, 0x00, 0x00, 0x00, 0x09, 
    0xa8, 0x00, 0x00, 0x00, 0x02, 0x00, 0x00, 0x00, 0xff, 0xff, 0xff, 0xff, 0x10, 0x00, 0x00, 0x00, 
    0x3c, 0xf8, 0xff, 0xff, 0x08, 0x00, 0x00, 0x00, 0x10, 0x00, 0x00, 0x00, 0x01, 0x00, 0x00, 0x00, 
    0x80, 0xff, 0xff, 0xff, 0xff, 0xff, 0xff, 0xff, 0x01, 0x00, 0x00, 0x00, 0x1b, 0x83, 0xe6, 0x3b, 
    0x73, 0x00, 0x00, 0x00, 0x74, 0x69, 0x6e, 0x79, 0x6d, 0x6c, 0x5f, 0x61, 0x75, 0x74, 0x6f, 0x65, 
    0x6e, 0x63, 0x6f, 0x64, 0x65, 0x72, 0x5f, 0x31, 0x2f, 0x65, 0x6e, 0x63, 0x6f, 0x64, 0x65, 0x5f, 
    0x31, 0x5f, 0x31, 0x2f, 0x4d, 0x61, 0x74, 0x4d, 0x75, 0x6c, 0x3b, 0x74, 0x69, 0x6e, 0x79, 0x6d, 
    0x6c, 0x5f, 0x61, 0x75, 0x74, 0x6f, 0x65, 0x6e, 0x63, 0x6f, 0x64, 0x65, 0x72, 0x5f, 0x31, 0x2f, 
    0x65, 0x6e, 0x63, 0x6f, 0x64, 0x65, 0x5f, 0x31, 0x5f, 0x31, 0x2f, 0x52, 0x65, 0x6c, 0x75, 0x3b, 
    0x74, 0x69, 0x6e, 0x79, 0x6d, 0x6c, 0x5f, 0x61, 0x75, 0x74, 0x6f, 0x65, 0x6e, 0x63, 0x6f, 0x64, 
    0x65, 0x72, 0x5f, 0x31, 0x2f, 0x65, 0x6e, 0x63, 0x6f, 0x64, 0x65, 0x5f, 0x31, 0x5f, 0x31, 0x2f, 
    0x42, 0x69, 0x61, 0x73, 0x41, 0x64, 0x64, 0x00, 0x02, 0x00, 0x00, 0x00, 0x01, 0x00, 0x00, 0x00, 
    0x10, 0x00, 0x00, 0x00, 0xee, 0xf9, 0xff, 0xff, 0x00, 0x00, 0x00, 0x01, 0x14, 0x00, 0x00, 0x00, 
    0xe8, 0x00, 0x00, 0x00, 0x09, 0x00, 0x00, 0x00, 0x00, 0x00, 0x00, 0x09, 0xf4, 0x00, 0x00, 0x00, 
    0xfc, 0xf8, 0xff, 0xff, 0x08, 0x00, 0x00, 0x00, 0x8c, 0x00, 0x00, 0x00, 0x10, 0x00, 0x00, 0x00, 
    0x00, 0x00, 0x00, 0x00, 0x00, 0x00, 0x00, 0x00, 0x00, 0x00, 0x00, 0x00, 0x00, 0x00, 0x00, 0x00, 
    0x00, 0x00, 0x00, 0x00, 0x00, 0x00, 0x00, 0x00, 0x00, 0x00, 0x00, 0x00, 0x00, 0x00, 0x00, 0x00, 
    0x00, 0x00, 0x00, 0x00, 0x00, 0x00, 0x00, 0x00, 0x00, 0x00, 0x00, 0x00, 0x00, 0x00, 0x00, 0x00, 
    0x00, 0x00, 0x00, 0x00, 0x00, 0x00, 0x00, 0x00, 0x00, 0x00, 0x00, 0x00, 0x00, 0x00, 0x00, 0x00, 
    0x00, 0x00, 0x00, 0x00, 0x00, 0x00, 0x00, 0x00, 0x00, 0x00, 0x00, 0x00, 0x00, 0x00, 0x00, 0x00, 
    0x00, 0x00, 0x00, 0x00, 0x00, 0x00, 0x00, 0x00, 0x00, 0x00, 0x00, 0x00, 0x00, 0x00, 0x00, 0x00, 
    0x00, 0x00, 0x00, 0x00, 0x00, 0x00, 0x00, 0x00, 0x00, 0x00, 0x00, 0x00, 0x00, 0x00, 0x00, 0x00, 
    0x00, 0x00, 0x00, 0x00, 0x00, 0x00, 0x00, 0x00, 0x00, 0x00, 0x00, 0x00, 0x00, 0x00, 0x00, 0x00, 
    0x00, 0x00, 0x00, 0x00, 0x10, 0x00, 0x00, 0x00, 0xac, 0x44, 0x58, 0x3b, 0x38, 0xe0, 0x38, 0x3b, 
    0xe9, 0x4a, 0x55, 0x3b, 0x59, 0xe4, 0x71, 0x3b, 0xd1, 0xb2, 0x39, 0x3b, 0xe4, 0xd5, 0x6f, 0x3b, 
    0xd2, 0xc3, 0x22, 0x3b, 0x4b, 0xa3, 0x68, 0x3b, 0x7f, 0x14, 0xa3, 0x3b, 0x53, 0x35, 0x43, 0x3b, 
    0xb8, 0x3e, 0x79, 0x3b, 0x93, 0xeb, 0x7f, 0x3b, 0xc7, 0x9e, 0x5a, 0x3b, 0xf1, 0x0b, 0x8f, 0x3b, 
    0xa8, 0xb9, 0x06, 0x3b, 0xf7, 0x6c, 0xad, 0x3b, 0x12, 0x00, 0x00, 0x00, 0x74, 0x66, 0x6c, 0x2e, 
    0x70, 0x73, 0x65, 0x75, 0x64, 0x6f, 0x5f, 0x71, 0x63, 0x6f, 0x6e, 0x73, 0x74, 0x37, 0x00, 0x00, 
    0x02, 0x00, 0x00, 0x00, 0x10, 0x00, 0x00, 0x00, 0x08, 0x00, 0x00, 0x00, 0x06, 0xfb, 0xff, 0xff, 
    0x00, 0x00, 0x00, 0x01, 0x14, 0x00, 0x00, 0x00, 0xe4, 0x00, 0x00, 0x00, 0x08, 0x00, 0x00, 0x00, 
    0x00, 0x00, 0x00, 0x02, 0xf0, 0x00, 0x00, 0x00, 0x14, 0xfa, 0xff, 0xff, 0x08, 0x00, 0x00, 0x00, 
    0x88, 0x00, 0x00, 0x00, 0x10, 0x00, 0x00, 0x00, 0x00, 0x00, 0x00, 0x00, 0x00, 0x00, 0x00, 0x00, 
    0x00, 0x00, 0x00, 0x00, 0x00, 0x00, 0x00, 0x00, 0x00, 0x00, 0x00, 0x00, 0x00, 0x00, 0x00, 0x00, 
    0x00, 0x00, 0x00, 0x00, 0x00, 0x00, 0x00, 0x00, 0x00, 0x00, 0x00, 0x00, 0x00, 0x00, 0x00, 0x00, 
    0x00, 0x00, 0x00, 0x00, 0x00, 0x00, 0x00, 0x00, 0x00, 0x00, 0x00, 0x00, 0x00, 0x00, 0x00, 0x00, 
    0x00, 0x00, 0x00, 0x00, 0x00, 0x00, 0x00, 0x00, 0x00, 0x00, 0x00, 0x00, 0x00, 0x00, 0x00, 0x00, 
    0x00, 0x00, 0x00, 0x00, 0x00, 0x00, 0x00, 0x00, 0x00, 0x00, 0x00, 0x00, 0x00, 0x00, 0x00, 0x00, 
    0x00, 0x00, 0x00, 0x00, 0x00, 0x00, 0x00, 0x00, 0x00, 0x00, 0x00, 0x00, 0x00, 0x00, 0x00, 0x00, 
    0x00, 0x00, 0x00, 0x00, 0x00, 0x00, 0x00, 0x00, 0x00, 0x00, 0x00, 0x00, 0x00, 0x00, 0x00, 0x00, 
    0x00, 0x00, 0x00, 0x00, 0x00, 0x00, 0x00, 0x00, 0x10, 0x00, 0x00, 0x00, 0xcb, 0x1d, 0x59, 0x37, 
    0xd3, 0x99, 0x39, 0x37, 0x0b, 0x21, 0x56, 0x37, 0x31, 0xd7, 0x72, 0x37, 0x3f, 0x6d, 0x3a, 0x37, 
    0xac, 0xc6, 0x70, 0x37, 0x3a, 0x67, 0x23, 0x37, 0xd9, 0x8c, 0x69, 0x37, 0x38, 0xb8, 0xa3, 0x37, 
    0x4d, 0xf9, 0x43, 0x37, 0xf2, 0x38, 0x7a, 0x37, 0x40, 0x76, 0x80, 0x37, 0x42, 0x7a, 0x5b, 0x37, 
    0x8d, 0x9b, 0x8f, 0x37, 0xe9, 0x40, 0x07, 0x37, 0x13, 0x1b, 0xae, 0x37, 0x12, 0x00, 0x00, 0x00, 
    0x74, 0x66, 0x6c, 0x2e, 0x70, 0x73, 0x65, 0x75, 0x64, 0x6f, 0x5f, 0x71, 0x63, 0x6f, 0x6e, 0x73, 
    0x74, 0x36, 0x00, 0x00, 0x01, 0x00, 0x00, 0x00, 0x10, 0x00, 0x00, 0x00, 0x16, 0xfc, 0xff, 0xff, 
    0x00, 0x00, 0x00, 0x01, 0x14, 0x00, 0x00, 0x00, 0x58, 0x00, 0x00, 0x00, 0x07, 0x00, 0x00, 0x00, 
    0x00, 0x00, 0x00, 0x09, 0x64, 0x00, 0x00, 0x00, 0x24, 0xfb, 0xff, 0xff, 0x08, 0x00, 0x00, 0x00, 
    0x2c, 0x00, 0x00, 0x00, 0x04, 0x00, 0x00, 0x00, 0x00, 0x00, 0x00, 0x00, 0x00, 0x00, 0x00, 0x00, 
    0x00, 0x00, 0x00, 0x00, 0x00, 0x00, 0x00, 0x00, 0x00, 0x00, 0x00, 0x00, 0x00, 0x00, 0x00, 0x00, 
    0x00, 0x00, 0x00, 0x00, 0x00, 0x00, 0x00, 0x00, 0x00, 0x00, 0x00, 0x00, 0x04, 0x00, 0x00, 0x00, 
    0x60, 0xe9, 0xa2, 0x3b, 0x1d, 0x4e, 0x9d, 0x3b, 0x0f, 0xb5, 0x89, 0x3b, 0x3d, 0x26, 0xa7, 0x3b, 
    0x12, 0x00, 0x00, 0x00, 0x74, 0x66, 0x6c, 0x2e, 0x70, 0x73, 0x65, 0x75, 0x64, 0x6f, 0x5f, 0x71, 
    0x63, 0x6f, 0x6e, 0x73, 0x74, 0x35, 0x00, 0x00, 0x02, 0x00, 0x00, 0x00, 0x04, 0x00, 0x00, 0x00, 
    0x10, 0x00, 0x00, 0x00, 0x9e, 0xfc, 0xff, 0xff, 0x00, 0x00, 0x00, 0x01, 0x14, 0x00, 0x00, 0x00, 
    0x54, 0x00, 0x00, 0x00, 0x06, 0x00, 0x00, 0x00, 0x00, 0x00, 0x00, 0x02, 0x60, 0x00, 0x00, 0x00, 
    0xac, 0xfb, 0xff, 0xff, 0x08, 0x00, 0x00, 0x00, 0x28, 0x00, 0x00, 0x00, 0x04, 0x00, 0x00, 0x00, 
    0x00, 0x00, 0x00, 0x00, 0x00, 0x00, 0x00, 0x00, 0x00, 0x00, 0x00, 0x00, 0x00, 0x00, 0x00, 0x00, 
    0x00, 0x00, 0x00, 0x00, 0x00, 0x00, 0x00, 0x00, 0x00, 0x00, 0x00, 0x00, 0x00, 0x00, 0x00, 0x00, 
    0x04, 0x00, 0x00, 0x00, 0x1b, 0xb1, 0x12, 0x38, 0xbe, 0xa4, 0x0d, 0x38, 0x63, 0xfe, 0xf7, 0x37, 
    0xf5, 0x81, 0x16, 0x38, 0x12, 0x00, 0x00, 0x00, 0x74, 0x66, 0x6c, 0x2e, 0x70, 0x73, 0x65, 0x75, 
    0x64, 0x6f, 0x5f, 0x71, 0x63, 0x6f, 0x6e, 0x73, 0x74, 0x34, 0x00, 0x00, 0x01, 0x00, 0x00, 0x00, 
    0x04, 0x00, 0x00, 0x00, 0x1e, 0xfd, 0xff, 0xff, 0x00, 0x00, 0x00, 0x01, 0x14, 0x00, 0x00, 0x00, 
    0xe8, 0x00, 0x00, 0x00, 0x05, 0x00, 0x00, 0x00, 0x00, 0x00, 0x00, 0x09, 0xf4, 0x00, 0x00, 0x00, 
    0x2c, 0xfc, 0xff, 0xff, 0x08, 0x00, 0x00, 0x00, 0x8c, 0x00, 0x00, 0x00, 0x10, 0x00, 0x00, 0x00, 
    0x00, 0x00, 0x00, 0x00, 0x00, 0x00, 0x00, 0x00, 0x00, 0x00, 0x00, 0x00, 0x00, 0x00, 0x00, 0x00, 
    0x00, 0x00, 0x00, 0x00, 0x00, 0x00, 0x00, 0x00, 0x00, 0x00, 0x00, 0x00, 0x00, 0x00, 0x00, 0x00, 
    0x00, 0x00, 0x00, 0x00, 0x00, 0x00, 0x00, 0x00, 0x00, 0x00, 0x00, 0x00, 0x00, 0x00, 0x00, 0x00, 
    0x00, 0x00, 0x00, 0x00, 0x00, 0x00, 0x00, 0x00, 0x00, 0x00, 0x00, 0x00, 0x00, 0x00, 0x00, 0x00, 
    0x00, 0x00, 0x00, 0x00, 0x00, 0x00, 0x00, 0x00, 0x00, 0x00, 0x00, 0x00, 0x00, 0x00, 0x00, 0x00, 
    0x00, 0x00, 0x00, 0x00, 0x00, 0x00, 0x00, 0x00, 0x00, 0x00, 0x00, 0x00, 0x00, 0x00, 0x00, 0x00, 
    0x00, 0x00, 0x00, 0x00, 0x00, 0x00, 0x00, 0x00, 0x00, 0x00, 0x00, 0x00, 0x00, 0x00, 0x00, 0x00, 
    0x00, 0x00, 0x00, 0x00, 0x00, 0x00, 0x00, 0x00, 0x00, 0x00, 0x00, 0x00, 0x00, 0x00, 0x00, 0x00, 
    0x00, 0x00, 0x00, 0x00, 0x10, 0x00, 0x00, 0x00, 0xa6, 0x08, 0x80, 0x3b, 0x92, 0x10, 0x6c, 0x3b, 
    0x1f, 0x0e, 0x72, 0x3b, 0x95, 0x72, 0xba, 0x3b, 0x76, 0x53, 0x70, 0x3b, 0x80, 0x93, 0xaa, 0x3b, 
    0x4d, 0x3c, 0xbf, 0x3b, 0x7c, 0x0b, 0xb1, 0x3b, 0x39, 0x60, 0xa4, 0x3b, 0xee, 0xcc, 0x7e, 0x3b, 
    0x65, 0x35, 0x6b, 0x3b, 0x77, 0x8c, 0x85, 0x3b, 0xac, 0x89, 0x28, 0x3b, 0xf9, 0x21, 0xf4, 0x3b, 
    0x63, 0x38, 0x36, 0x3b, 0x5a, 0x2b, 0xa2, 0x3b, 0x12, 0x00, 0x00, 0x00, 0x74, 0x66, 0x6c, 0x2e, 
    0x70, 0x73, 0x65, 0x75, 0x64, 0x6f, 0x5f, 0x71, 0x63, 0x6f, 0x6e, 0x73, 0x74, 0x33, 0x00, 0x00, 
    0x02, 0x00, 0x00, 0x00, 0x10, 0x00, 0x00, 0x00, 0x04, 0x00, 0x00, 0x00, 0x36, 0xfe, 0xff, 0xff, 
    0x00, 0x00, 0x00, 0x01, 0x14, 0x00, 0x00, 0x00, 0xe4, 0x00, 0x00, 0x00, 0x04, 0x00, 0x00, 0x00, 
    0x00, 0x00, 0x00, 0x02, 0xf0, 0x00, 0x00, 0x00, 0x44, 0xfd, 0xff, 0xff, 0x08, 0x00, 0x00, 0x00, 
    0x88, 0x00, 0x00, 0x00, 0x10, 0x00, 0x00, 0x00, 0x00, 0x00, 0x00, 0x00, 0x00, 0x00, 0x00, 0x00, 
    0x00, 0x00, 0x00, 0x00, 0x00, 0x00, 0x00, 0x00, 0x00, 0x00, 0x00, 0x00, 0x00, 0x00, 0x00, 0x00, 
    0x00, 0x00, 0x00, 0x00, 0x00, 0x00, 0x00, 0x00, 0x00, 0x00, 0x00, 0x00, 0x00, 0x00, 0x00, 0x00, 
    0x00, 0x00, 0x00, 0x00, 0x00, 0x00, 0x00, 0x00, 0x00, 0x00, 0x00, 0x00, 0x00, 0x00, 0x00, 0x00, 
    0x00, 0x00, 0x00, 0x00, 0x00, 0x00, 0x00, 0x00, 0x00, 0x00, 0x00, 0x00, 0x00, 0x00, 0x00, 0x00, 
    0x00, 0x00, 0x00, 0x00, 0x00, 0x00, 0x00, 0x00, 0x00, 0x00, 0x00, 0x00, 0x00, 0x00, 0x00, 0x00, 
    0x00, 0x00, 0x00, 0x00, 0x00, 0x00, 0x00, 0x00, 0x00, 0x00, 0x00, 0x00, 0x00, 0x00, 0x00, 0x00, 
    0x00, 0x00, 0x00, 0x00, 0x00, 0x00, 0x00, 0x00, 0x00, 0x00, 0x00, 0x00, 0x00, 0x00, 0x00, 0x00, 
    0x00, 0x00, 0x00, 0x00, 0x00, 0x00, 0x00, 0x00, 0x10, 0x00, 0x00, 0x00, 0x31, 0xff, 0xd2, 0x37, 
    0xc5, 0x83, 0xc2, 0x37, 0x66, 0x73, 0xc7, 0x37, 0x78, 0xa1, 0x19, 0x38, 0xa6, 0x06, 0xc6, 0x37, 
    0x89, 0x8d, 0x0c, 0x38, 0x73, 0x93, 0x1d, 0x38, 0x0c, 0xe2, 0x11, 0x38, 0xa3, 0x71, 0x07, 0x38, 
    0xea, 0xf3, 0xd1, 0x37, 0x2b, 0xcf, 0xc1, 0x37, 0xd5, 0x15, 0xdc, 0x37, 0x8e, 0xdf, 0x8a, 0x37, 
    0xa3, 0x29, 0x49, 0x38, 0xc1, 0x25, 0x96, 0x37, 0x31, 0xa0, 0x05, 0x38, 0x12, 0x00, 0x00, 0x00, 
    0x74, 0x66, 0x6c, 0x2e, 0x70, 0x73, 0x65, 0x75, 0x64, 0x6f, 0x5f, 0x71, 0x63, 0x6f, 0x6e, 0x73, 
    0x74, 0x32, 0x00, 0x00, 0x01, 0x00, 0x00, 0x00, 0x10, 0x00, 0x00, 0x00, 0x46, 0xff, 0xff, 0xff, 
    0x00, 0x00, 0x00, 0x01, 0x14, 0x00, 0x00, 0x00, 0x88, 0x00, 0x00, 0x00, 0x03, 0x00, 0x00, 0x00, 
    0x00, 0x00, 0x00, 0x09, 0x94, 0x00, 0x00, 0x00, 0x54, 0xfe, 0xff, 0xff, 0x08, 0x00, 0x00, 0x00, 
    0x4c, 0x00, 0x00, 0x00, 0x08, 0x00, 0x00, 0x00, 0x00, 0x00, 0x00, 0x00, 0x00, 0x00, 0x00, 0x00, 
    0x00, 0x00, 0x00, 0x00, 0x00, 0x00, 0x00, 0x00, 0x00, 0x00, 0x00, 0x00, 0x00, 0x00, 0x00, 0x00, 
    0x00, 0x00, 0x00, 0x00, 0x00, 0x00, 0x00, 0x00, 0x00, 0x00, 0x00, 0x00, 0x00, 0x00, 0x00, 0x00, 
    0x00, 0x00, 0x00, 0x00, 0x00, 0x00, 0x00, 0x00, 0x00, 0x00, 0x00, 0x00, 0x00, 0x00, 0x00, 0x00, 
    0x00, 0x00, 0x00, 0x00, 0x00, 0x00, 0x00, 0x00, 0x00, 0x00, 0x00, 0x00, 0x08, 0x00, 0x00, 0x00, 
    0xf2, 0xd8, 0x12, 0x3c, 0xf6, 0xe3, 0x9a, 0x3b, 0x97, 0xc2, 0x86, 0x3b, 0xc1, 0x40, 0xd6, 0x3b, 
    0xc8, 0x33, 0x87, 0x3b, 0x45, 0xf5, 0xa8, 0x3b, 0x6f, 0x70, 0x93, 0x3b, 0xe5, 0xfb, 0x79, 0x3b, 
    0x12, 0x00, 0x00, 0x00, 0x74, 0x66, 0x6c, 0x2e, 0x70, 0x73, 0x65, 0x75, 0x64, 0x6f, 0x5f, 0x71, 
    0x63, 0x6f, 0x6e, 0x73, 0x74, 0x31, 0x00, 0x00, 0x02, 0x00, 0x00, 0x00, 0x08, 0x00, 0x00, 0x00, 
    0x10, 0x00, 0x00, 0x00, 0x00, 0x00, 0x16, 0x00, 0x1c, 0x00, 0x18, 0x00, 0x17, 0x00, 0x10, 0x00, 
    0x0c, 0x00, 0x08, 0x00, 0x00, 0x00, 0x00, 0x00, 0x00, 0x00, 0x07, 0x00, 0x16, 0x00, 0x00, 0x00, 
    0x00, 0x00, 0x00, 0x01, 0x14, 0x00, 0x00, 0x00, 0x88, 0x00, 0x00, 0x00, 0x02, 0x00, 0x00, 0x00, 
    0x00, 0x00, 0x00, 0x02, 0x94, 0x00, 0x00, 0x00, 0x24, 0xff, 0xff, 0xff, 0x08, 0x00, 0x00, 0x00, 
    0x4c, 0x00, 0x00, 0x00, 0x08, 0x00, 0x00, 0x00, 0x00, 0x00, 0x00, 0x00, 0x00, 0x00, 0x00, 0x00, 
    0x00, 0x00, 0x00, 0x00, 0x00, 0x00, 0x00, 0x00, 0x00, 0x00, 0x00, 0x00, 0x00, 0x00, 0x00, 0x00, 
    0x00, 0x00, 0x00, 0x00, 0x00, 0x00, 0x00, 0x00, 0x00, 0x00, 0x00, 0x00, 0x00, 0x00, 0x00, 0x00, 
    0x00, 0x00, 0x00, 0x00, 0x00, 0x00, 0x00, 0x00, 0x00, 0x00, 0x00, 0x00, 0x00, 0x00, 0x00, 0x00, 
    0x00, 0x00, 0x00, 0x00, 0x00, 0x00, 0x00, 0x00, 0x00, 0x00, 0x00, 0x00, 0x08, 0x00, 0x00, 0x00, 
    0x71, 0xb2, 0x44, 0x38, 0x6b, 0x78, 0xcf, 0x37, 0xa9, 0x81, 0xb4, 0x37, 0xff, 0x7d, 0x0f, 0x38, 
    0x46, 0x19, 0xb5, 0x37, 0x3f, 0x50, 0xe2, 0x37, 0x5a, 0x7d, 0xc5, 0x37, 0x23, 0x6c, 0xa7, 0x37, 
    0x11, 0x00, 0x00, 0x00, 0x74, 0x66, 0x6c, 0x2e, 0x70, 0x73, 0x65, 0x75, 0x64, 0x6f, 0x5f, 0x71, 
    0x63, 0x6f, 0x6e, 0x73, 0x74, 0x00, 0x00, 0x00, 0x01, 0x00, 0x00, 0x00, 0x08, 0x00, 0x00, 0x00, 
    0x00, 0x00, 0x16, 0x00, 0x20, 0x00, 0x1c, 0x00, 0x1b, 0x00, 0x14, 0x00, 0x10, 0x00, 0x0c, 0x00, 
    0x00, 0x00, 0x00, 0x00, 0x08, 0x00, 0x07, 0x00, 0x16, 0x00, 0x00, 0x00, 0x00, 0x00, 0x00, 0x01, 
    0x18, 0x00, 0x00, 0x00, 0x2c, 0x00, 0x00, 0x00, 0x4c, 0x00, 0x00, 0x00, 0x01, 0x00, 0x00, 0x00, 
    0x00, 0x00, 0x00, 0x09, 0x5c, 0x00, 0x00, 0x00, 0x02, 0x00, 0x00, 0x00, 0xff, 0xff, 0xff, 0xff, 
    0x08, 0x00, 0x00, 0x00, 0x0c, 0x00, 0x0c, 0x00, 0x00, 0x00, 0x00, 0x00, 0x08, 0x00, 0x04, 0x00, 
    0x0c, 0x00, 0x00, 0x00, 0x08, 0x00, 0x00, 0x00, 0x14, 0x00, 0x00, 0x00, 0x01, 0x00, 0x00, 0x00, 
    0x80, 0xff, 0xff, 0xff, 0xff, 0xff, 0xff, 0xff, 0x00, 0x00, 0x00, 0x00, 0x01, 0x00, 0x00, 0x00, 
    0x81, 0x80, 0x80, 0x3b, 0x17, 0x00, 0x00, 0x00, 0x73, 0x65, 0x72, 0x76, 0x69, 0x6e, 0x67, 0x5f, 
    0x64, 0x65, 0x66, 0x61, 0x75, 0x6c, 0x74, 0x5f, 0x69, 0x6e, 0x70, 0x75, 0x74, 0x3a, 0x30, 0x00, 
    0x02, 0x00, 0x00, 0x00, 0x01, 0x00, 0x00, 0x00, 0x08, 0x00, 0x00, 0x00, 0x01, 0x00, 0x00, 0x00, 
    0x10, 0x00, 0x00, 0x00, 0x0c, 0x00, 0x10, 0x00, 0x0f, 0x00, 0x00, 0x00, 0x08, 0x00, 0x04, 0x00, 
    0x0c, 0x00, 0x00, 0x00, 0x09, 0x00, 0x00, 0x00, 0x04, 0x00, 0x00, 0x00, 0x00, 0x00, 0x00, 0x09

};

const unsigned int model_data_len = 4272;

// Model metadata
#define MODEL_INPUT_SIZE 8
#define MODEL_OUTPUT_SIZE 8
#define MODEL_SIZE_BYTES 4272
#define MODEL_QUANTIZATION_INT8

// Feature scaling parameters (Q14 fixed-point format)
// These values should be updated from your trained model
const int32_t SCALER_MEAN_FIXED[MODEL_INPUT_SIZE] = {
    2124,   // rms mean * 16384
    9748,   // peak mean * 16384  
    76459,  // crest_factor mean * 16384
    12378,  // kurtosis mean * 16384
    3181,   // envelope_peak mean * 16384
    446,    // high_freq_power mean * 16384
    86,     // bearing_freq_power mean * 16384
    101596  // spectral_kurtosis mean * 16384
};

const int32_t SCALER_SCALE_FIXED[MODEL_INPUT_SIZE] = {
    492,    // rms scale * 16384
    2496,   // peak scale * 16384
    16753,  // crest_factor scale * 16384
    9205,   // kurtosis scale * 16384
    1991,   // envelope_peak scale * 16384
    418,    // high_freq_power scale * 16384
    32,     // bearing_freq_power scale * 16384
    52682   // spectral_kurtosis scale * 16384
};

// Anomaly detection threshold (Q14 fixed-point)
#define ANOMALY_THRESHOLD_FIXED 134  // Placeholder - update from training

#endif // MODEL_DATA_H
