#ifndef REFINED_MODEL_DATA_H
#define REFINED_MODEL_DATA_H

#include <stdint.h>

const unsigned int refined_model_len = 15768;
const unsigned char refined_model_data[] = {

  0x1c, 0x00, 0x00, 0x00, 0x54, 0x46, 0x4c, 0x33, 0x14, 0x00, 0x20, 0x00, 
  0x1c, 0x00, 0x18, 0x00, 0x14, 0x00, 0x10, 0x00, 0x0c, 0x00, 0x00, 0x00, 
  0x08, 0x00, 0x04, 0x00, 0x14, 0x00, 0x00, 0x00, 0x1c, 0x00, 0x00, 0x00, 
  0x90, 0x00, 0x00, 0x00, 0xe8, 0x00, 0x00, 0x00, 0x30, 0x2f, 0x00, 0x00, 
  0x40, 0x2f, 0x00, 0x00, 0x40, 0x3d, 0x00, 0x00, 0x03, 0x00, 0x00, 0x00, 
  0x01, 0x00, 0x00, 0x00, 0x10, 0x00, 0x00, 0x00, 0x00, 0x00, 0x0a, 0x00, 
  0x10, 0x00, 0x0c, 0x00, 0x08, 0x00, 0x04, 0x00, 0x0a, 0x00, 0x00, 0x00, 
  0x0c, 0x00, 0x00, 0x00, 0x1c, 0x00, 0x00, 0x00, 0x3c, 0x00, 0x00, 0x00, 
  0x0f, 0x00, 0x00, 0x00, 0x73, 0x65, 0x72, 0x76, 0x69, 0x6e, 0x67, 0x5f, 
  0x64, 0x65, 0x66, 0x61, 0x75, 0x6c, 0x74, 0x00, 0x01, 0x00, 0x00, 0x00, 
  0x04, 0x00, 0x00, 0x00, 0x98, 0xff, 0xff, 0xff, 0x12, 0x00, 0x00, 0x00, 
  0x04, 0x00, 0x00, 0x00, 0x08, 0x00, 0x00, 0x00, 0x6f, 0x75, 0x74, 0x70, 
  0x75, 0x74, 0x5f, 0x30, 0x00, 0x00, 0x00, 0x00, 0x01, 0x00, 0x00, 0x00, 
  0x04, 0x00, 0x00, 0x00, 0x1e, 0xd2, 0xff, 0xff, 0x04, 0x00, 0x00, 0x00, 
  0x05, 0x00, 0x00, 0x00, 0x69, 0x6e, 0x70, 0x75, 0x74, 0x00, 0x00, 0x00, 
  0x02, 0x00, 0x00, 0x00, 0x34, 0x00, 0x00, 0x00, 0x04, 0x00, 0x00, 0x00, 
  0xdc, 0xff, 0xff, 0xff, 0x15, 0x00, 0x00, 0x00, 0x04, 0x00, 0x00, 0x00, 
  0x13, 0x00, 0x00, 0x00, 0x43, 0x4f, 0x4e, 0x56, 0x45, 0x52, 0x53, 0x49, 
  0x4f, 0x4e, 0x5f, 0x4d, 0x45, 0x54, 0x41, 0x44, 0x41, 0x54, 0x41, 0x00, 
  0x08, 0x00, 0x0c, 0x00, 0x08, 0x00, 0x04, 0x00, 0x08, 0x00, 0x00, 0x00, 
  0x14, 0x00, 0x00, 0x00, 0x04, 0x00, 0x00, 0x00, 0x13, 0x00, 0x00, 0x00, 
  0x6d, 0x69, 0x6e, 0x5f, 0x72, 0x75, 0x6e, 0x74, 0x69, 0x6d, 0x65, 0x5f, 
  0x76, 0x65, 0x72, 0x73, 0x69, 0x6f, 0x6e, 0x00, 0x16, 0x00, 0x00, 0x00, 
  0x44, 0x2e, 0x00, 0x00, 0x3c, 0x2e, 0x00, 0x00, 0x6c, 0x2d, 0x00, 0x00, 
  0x54, 0x21, 0x00, 0x00, 0xc4, 0x1c, 0x00, 0x00, 0x74, 0x1c, 0x00, 0x00, 
  0x64, 0x10, 0x00, 0x00, 0xf4, 0x0f, 0x00, 0x00, 0xb4, 0x0f, 0x00, 0x00, 
  0x24, 0x0b, 0x00, 0x00, 0xb4, 0x0a, 0x00, 0x00, 0xe4, 0x09, 0x00, 0x00, 
  0x54, 0x05, 0x00, 0x00, 0xc4, 0x00, 0x00, 0x00, 0xbc, 0x00, 0x00, 0x00, 
  0xb4, 0x00, 0x00, 0x00, 0xac, 0x00, 0x00, 0x00, 0xa4, 0x00, 0x00, 0x00, 
  0x9c, 0x00, 0x00, 0x00, 0x94, 0x00, 0x00, 0x00, 0x74, 0x00, 0x00, 0x00, 
  0x04, 0x00, 0x00, 0x00, 0xea, 0xd2, 0xff, 0xff, 0x04, 0x00, 0x00, 0x00, 
  0x60, 0x00, 0x00, 0x00, 0x0c, 0x00, 0x00, 0x00, 0x08, 0x00, 0x0e, 0x00, 
  0x08, 0x00, 0x04, 0x00, 0x08, 0x00, 0x00, 0x00, 0x10, 0x00, 0x00, 0x00, 
  0x28, 0x00, 0x00, 0x00, 0x00, 0x00, 0x06, 0x00, 0x08, 0x00, 0x04, 0x00, 
  0x06, 0x00, 0x00, 0x00, 0x04, 0x00, 0x00, 0x00, 0x01, 0x00, 0x00, 0x00, 
  0xea, 0x03, 0x00, 0x00, 0x0c, 0x00, 0x18, 0x00, 0x14, 0x00, 0x10, 0x00, 
  0x0c, 0x00, 0x04, 0x00, 0x0c, 0x00, 0x00, 0x00, 0xdf, 0xff, 0xfa, 0x86, 
  0x97, 0x8d, 0x75, 0x00, 0x02, 0x00, 0x00, 0x00, 0x02, 0x00, 0x00, 0x00, 
  0x04, 0x00, 0x00, 0x00, 0x06, 0x00, 0x00, 0x00, 0x32, 0x2e, 0x32, 0x30, 
  0x2e, 0x30, 0x00, 0x00, 0x56, 0xd3, 0xff, 0xff, 0x04, 0x00, 0x00, 0x00, 
  0x10, 0x00, 0x00, 0x00, 0x32, 0x2e, 0x31, 0x37, 0x2e, 0x30, 0x00, 0x00, 
  0x00, 0x00, 0x00, 0x00, 0x00, 0x00, 0x00, 0x00, 0xb0, 0xc4, 0xff, 0xff, 
  0xb4, 0xc4, 0xff, 0xff, 0xb8, 0xc4, 0xff, 0xff, 0xbc, 0xc4, 0xff, 0xff, 
  0xc0, 0xc4, 0xff, 0xff, 0xc4, 0xc4, 0xff, 0xff, 0x8a, 0xd3, 0xff, 0xff, 
  0x04, 0x00, 0x00, 0x00, 0x80, 0x04, 0x00, 0x00, 0xb8, 0x02, 0x48, 0x82, 
  0x11, 0x23, 0x15, 0xdc, 0x46, 0x1a, 0xe4, 0x05, 0xdd, 0x3b, 0xf7, 0x46, 
  0x9d, 0x81, 0xda, 0x03, 0xd4, 0x58, 0x0d, 0x23, 0xd6, 0x4b, 0xb9, 0x4c, 
  0x36, 0x41, 0x38, 0xdf, 0xa6, 0xde, 0xc8, 0xa6, 0x65, 0xca, 0x5b, 0xff, 
  0xc7, 0x00, 0x0a, 0x0c, 0x21, 0xe0, 0xec, 0x58, 0xd7, 0xd5, 0xf0, 0x24, 
  0xf7, 0x2f, 0x10, 0xd8, 0x31, 0x24, 0x25, 0x07, 0x33, 0xf2, 0x2d, 0xb8, 
  0x2f, 0x81, 0x11, 0xc3, 0x17, 0x10, 0xe5, 0x05, 0x40, 0x46, 0x49, 0x54, 
  0xe6, 0x20, 0x4c, 0xc3, 0x2a, 0x2e, 0x23, 0x2e, 0xca, 0xe9, 0xfe, 0xfb, 
  0xd7, 0xf1, 0xff, 0xd1, 0x26, 0x2a, 0xee, 0x91, 0xe1, 0x08, 0xfc, 0xc0, 
  0xe4, 0xf6, 0x02, 0xfb, 0x1a, 0xf2, 0x08, 0x0a, 0xe5, 0xfd, 0xfa, 0x22, 
  0x1d, 0x7f, 0xf7, 0x2f, 0x09, 0xfe, 0xdc, 0x11, 0xfc, 0xdf, 0xda, 0xed, 
  0xe2, 0xf1, 0xe6, 0xe5, 0xed, 0xf6, 0xff, 0x03, 0xde, 0xec, 0x32, 0xf7, 
  0x21, 0x26, 0xf1, 0x36, 0x0b, 0x10, 0xf6, 0x27, 0x0c, 0x04, 0x04, 0xd3, 
  0x0e, 0xed, 0xce, 0x23, 0x4c, 0x00, 0x13, 0x19, 0x27, 0xed, 0xfd, 0xd7, 
  0x2d, 0x7f, 0x18, 0xb8, 0x1f, 0x24, 0x21, 0x08, 0x0b, 0xe5, 0xd8, 0x0d, 
  0x0a, 0xf8, 0xf9, 0xd7, 0xe3, 0x0f, 0xdd, 0x2d, 0xdc, 0xe6, 0xd5, 0xfa, 
  0xe4, 0xe6, 0x1d, 0xf9, 0x0b, 0xfe, 0xf0, 0xc8, 0xcd, 0xdf, 0x24, 0x0e, 
  0xe7, 0x23, 0xc9, 0xdc, 0x2b, 0x03, 0xd1, 0x06, 0x20, 0x5f, 0x25, 0xa4, 
  0x0b, 0x7f, 0xfb, 0xd2, 0xfb, 0x0f, 0xf6, 0x2e, 0xc7, 0xf0, 0x58, 0x10, 
  0xef, 0xe6, 0xcd, 0x4d, 0xab, 0xe0, 0xfd, 0xf1, 0xfa, 0x15, 0x26, 0xfc, 
  0x18, 0x1d, 0x0c, 0x2c, 0x2b, 0x0f, 0xd1, 0x1b, 0xea, 0xfd, 0x29, 0x11, 
  0x29, 0x17, 0x40, 0xd4, 0x54, 0x47, 0x24, 0x0e, 0xff, 0x1c, 0x1d, 0x81, 
  0xad, 0xbb, 0xcc, 0x3f, 0xdd, 0xea, 0x2d, 0xd8, 0xef, 0xd0, 0xa9, 0x1a, 
  0x44, 0x90, 0x8d, 0x3f, 0xe8, 0x0d, 0xd0, 0x1b, 0x95, 0xcf, 0xc0, 0x02, 
  0x20, 0x32, 0xfe, 0x3d, 0x22, 0x19, 0xda, 0x34, 0xe5, 0x3d, 0x1d, 0x15, 
  0xde, 0x04, 0xe5, 0x25, 0x07, 0xfc, 0xe3, 0xed, 0x2d, 0x5d, 0x43, 0x7f, 
  0x2e, 0xa1, 0xe9, 0x4e, 0x0f, 0xec, 0xfb, 0x2d, 0xf9, 0x0d, 0xc6, 0xdc, 
  0xf4, 0x1b, 0x23, 0x2c, 0xc5, 0xf2, 0x34, 0x05, 0xcc, 0xdf, 0x1e, 0xed, 
  0x05, 0xe1, 0xf8, 0xff, 0xca, 0x1b, 0x38, 0xeb, 0xd4, 0x31, 0xf3, 0xb4, 
  0x32, 0x05, 0xd0, 0x24, 0x45, 0x41, 0xdc, 0x2a, 0x0b, 0x90, 0xfe, 0xbf, 
  0x04, 0x03, 0x16, 0x81, 0x13, 0x46, 0x06, 0x00, 0xf4, 0xd8, 0x1b, 0x15, 
  0xd4, 0x0d, 0x9f, 0xda, 0x03, 0x01, 0x1e, 0xcc, 0x50, 0x08, 0x2f, 0x0e, 
  0xfc, 0xde, 0x0c, 0xc3, 0xec, 0x12, 0xdb, 0x51, 0x24, 0x20, 0xd6, 0xb3, 
  0x0a, 0xbe, 0x25, 0xea, 0xf8, 0xeb, 0xe1, 0xf1, 0x14, 0x99, 0x31, 0x53, 
  0x36, 0x30, 0x37, 0x75, 0x1a, 0xae, 0x3a, 0xa2, 0x2f, 0xc9, 0x48, 0xe7, 
  0x30, 0xcc, 0xb8, 0x20, 0x7f, 0xdc, 0xba, 0x18, 0xd7, 0x28, 0x01, 0x2c, 
  0x09, 0x16, 0x26, 0xe6, 0xc9, 0x30, 0x37, 0x0e, 0x48, 0xdd, 0xf8, 0x4b, 
  0x4a, 0x11, 0x21, 0x47, 0x44, 0x52, 0x08, 0xce, 0xbf, 0x94, 0x7f, 0xf0, 
  0x3a, 0xac, 0xee, 0x25, 0xdc, 0xea, 0x0a, 0xc9, 0xd8, 0x18, 0x50, 0xf3, 
  0x51, 0x3b, 0x22, 0x62, 0xf8, 0xd3, 0x18, 0x19, 0xb1, 0x10, 0x2e, 0x29, 
  0xfd, 0xce, 0x24, 0x5f, 0x10, 0xfd, 0x05, 0x06, 0x31, 0x1a, 0x08, 0x12, 
  0x10, 0x28, 0x12, 0xc1, 0x11, 0xd5, 0x1a, 0xf8, 0x36, 0x49, 0x68, 0x54, 
  0x48, 0x32, 0xf6, 0x81, 0xf7, 0x4c, 0xd1, 0xce, 0xb0, 0xe6, 0x3d, 0xdc, 
  0xb7, 0x34, 0x1d, 0xd3, 0xa8, 0xf1, 0x1a, 0xcb, 0x46, 0x01, 0x04, 0xde, 
  0x06, 0x0c, 0x0d, 0xb1, 0x22, 0xe7, 0x48, 0x42, 0x2f, 0x1f, 0xe8, 0x1c, 
  0x44, 0x01, 0x1b, 0x36, 0x2b, 0x05, 0x47, 0x0f, 0x04, 0xf8, 0x7f, 0xb5, 
  0x47, 0x2d, 0x3a, 0xda, 0x39, 0x4a, 0xba, 0x06, 0xcd, 0x3d, 0x57, 0xce, 
  0x01, 0x59, 0xf8, 0xae, 0xbd, 0xfa, 0xed, 0x22, 0xef, 0x26, 0x4e, 0x18, 
  0x0c, 0x26, 0xdd, 0xe9, 0x2f, 0xda, 0xe8, 0x0f, 0xed, 0xce, 0x43, 0x7f, 
  0xac, 0x2c, 0x1e, 0xb1, 0xbf, 0x33, 0xc5, 0x17, 0xfb, 0x61, 0xbb, 0xb0, 
  0xc6, 0xc8, 0x1e, 0xba, 0x0c, 0x0d, 0xe3, 0x0a, 0x81, 0x10, 0x18, 0x49, 
  0x87, 0x83, 0xe4, 0xf0, 0xc4, 0x2a, 0xdf, 0xbb, 0x5a, 0xef, 0x32, 0xda, 
  0x35, 0x1a, 0x12, 0xe2, 0xfc, 0xcc, 0x0a, 0xd4, 0x20, 0xf1, 0x3f, 0x9a, 
  0x4e, 0xa1, 0x2e, 0x53, 0xac, 0x50, 0x27, 0x07, 0xdd, 0xba, 0xfc, 0x32, 
  0xf8, 0xc4, 0xf0, 0x61, 0xd1, 0x73, 0x31, 0x35, 0x4b, 0xcc, 0x88, 0x2a, 
  0x12, 0x7f, 0x1c, 0xd2, 0xa4, 0x58, 0xad, 0xff, 0x44, 0x22, 0x64, 0xdf, 
  0x25, 0xcc, 0xef, 0xa1, 0xcf, 0xec, 0x19, 0xe2, 0xf1, 0xeb, 0xc9, 0x96, 
  0x03, 0x13, 0x25, 0xe3, 0xce, 0xe2, 0x22, 0x13, 0xdd, 0x2f, 0xad, 0x0f, 
  0xfb, 0xe8, 0x25, 0x7f, 0xf9, 0x48, 0x09, 0x10, 0xb3, 0x5f, 0x3f, 0x04, 
  0x46, 0xd5, 0x59, 0xb1, 0x54, 0xf0, 0xd3, 0xce, 0x42, 0x1b, 0xf9, 0x24, 
  0xfd, 0xcf, 0xf2, 0x0e, 0x02, 0x24, 0xca, 0x0c, 0x0a, 0x7f, 0x3c, 0xea, 
  0x24, 0xd2, 0x48, 0xfa, 0x03, 0xe3, 0x36, 0x39, 0xf9, 0x2a, 0xc2, 0xfa, 
  0x2e, 0x95, 0xbd, 0xbf, 0x21, 0x3a, 0xbe, 0xc4, 0x31, 0x1f, 0x98, 0x28, 
  0xbf, 0x8d, 0x5b, 0x4f, 0x18, 0xfb, 0xe4, 0xd0, 0x71, 0x0e, 0x1a, 0x1d, 
  0x32, 0x04, 0xe5, 0x44, 0x45, 0x01, 0xd9, 0x38, 0xcf, 0xc5, 0x05, 0x46, 
  0xc0, 0xe3, 0xe6, 0xcf, 0xc8, 0xe2, 0x1a, 0xdf, 0x0a, 0x6a, 0xfc, 0xb6, 
  0x0f, 0x7f, 0x07, 0x3e, 0x08, 0xed, 0x02, 0x0e, 0x23, 0xeb, 0xe3, 0xd5, 
  0x24, 0xcf, 0x4b, 0x13, 0xf1, 0x10, 0xdd, 0xcf, 0xf3, 0x0e, 0xfb, 0xe6, 
  0xe6, 0x09, 0xde, 0x04, 0xf4, 0xfd, 0x27, 0x34, 0xea, 0x0e, 0x38, 0xfc, 
  0xd3, 0xd4, 0x25, 0x08, 0xd7, 0xd8, 0x29, 0x4a, 0xe6, 0x5d, 0xd1, 0xeb, 
  0xc2, 0x71, 0x04, 0x58, 0x1a, 0xd0, 0x2a, 0xfb, 0x60, 0x2b, 0x89, 0x22, 
  0x7f, 0x2d, 0xa9, 0xb9, 0xf7, 0x3d, 0xc6, 0xbf, 0x1e, 0x2f, 0xb1, 0x3e, 
  0xeb, 0x0e, 0x3e, 0xfe, 0xcc, 0x08, 0x2d, 0x50, 0xe4, 0xff, 0xde, 0x0c, 
  0x36, 0xcd, 0xdf, 0xf0, 0xe4, 0xef, 0xed, 0xf4, 0x19, 0xce, 0xf5, 0x13, 
  0xd7, 0xdd, 0xf0, 0x7f, 0xf2, 0x2f, 0x07, 0xef, 0xba, 0x20, 0xff, 0x1b, 
  0x1d, 0x26, 0x9b, 0x16, 0xd1, 0xfb, 0xe1, 0x2a, 0xcf, 0xec, 0xd6, 0xef, 
  0x04, 0x12, 0x0e, 0x30, 0x12, 0x14, 0x19, 0xad, 0xf0, 0xde, 0xec, 0x7f, 
  0x3a, 0xe5, 0xff, 0xbd, 0x3f, 0x02, 0xf6, 0x30, 0x56, 0x44, 0x04, 0xbd, 
  0xa2, 0x0b, 0x51, 0x84, 0xe7, 0xe5, 0xbc, 0xaf, 0x8b, 0xc6, 0xba, 0xd6, 
  0x67, 0x18, 0xae, 0x19, 0x16, 0x22, 0xb3, 0x07, 0xad, 0x2a, 0xde, 0x44, 
  0xe9, 0xe5, 0xff, 0x14, 0x52, 0xd5, 0xc6, 0xd0, 0xca, 0xe1, 0x01, 0x7f, 
  0xf1, 0xea, 0x04, 0x14, 0x3a, 0xe7, 0x21, 0x16, 0xf3, 0xe8, 0x38, 0xb4, 
  0x4c, 0x00, 0x04, 0x33, 0x12, 0x10, 0xde, 0x20, 0xfe, 0xe5, 0xf9, 0xf2, 
  0x23, 0x16, 0xf4, 0x2f, 0x09, 0xde, 0xcc, 0xda, 0x29, 0x10, 0x1f, 0x0c, 
  0xcc, 0x11, 0x03, 0xf7, 0x15, 0xf4, 0xda, 0xc8, 0xd8, 0x5a, 0xf5, 0x45, 
  0xf3, 0xcf, 0xcf, 0x4e, 0xd4, 0x33, 0x2f, 0xf8, 0xb2, 0x22, 0x81, 0xfd, 
  0xe3, 0x64, 0x07, 0x19, 0xf2, 0xe3, 0x38, 0xac, 0x1d, 0x18, 0x15, 0x40, 
  0x05, 0x1f, 0xe4, 0xe4, 0x4d, 0xf9, 0xf2, 0x1a, 0x12, 0xff, 0xd0, 0x0e, 
  0xeb, 0xd8, 0xea, 0x17, 0x25, 0x0e, 0x21, 0x55, 0xe4, 0x7f, 0x49, 0x6c, 
  0xfc, 0xc8, 0x15, 0xc0, 0xf9, 0xd6, 0xc9, 0xcc, 0x36, 0x15, 0x8c, 0x76, 
  0x23, 0x63, 0xdc, 0x87, 0xf5, 0xb2, 0x37, 0x5e, 0x3a, 0x31, 0x70, 0x52, 
  0x21, 0x9f, 0xae, 0xfb, 0x64, 0xd0, 0xd4, 0xf0, 0x22, 0x05, 0xe1, 0xfb, 
  0xc9, 0x35, 0xd5, 0x57, 0x0b, 0xe0, 0xae, 0xae, 0x32, 0xc5, 0xf9, 0xe3, 
  0x23, 0x16, 0x92, 0xd6, 0x37, 0x3c, 0x4c, 0x3b, 0xb0, 0xc9, 0xd7, 0x66, 
  0x31, 0x51, 0x47, 0xbc, 0xf9, 0x01, 0x88, 0xf7, 0xb6, 0x36, 0xdd, 0xda, 
  0xcc, 0xd4, 0x77, 0x0e, 0x42, 0x2c, 0x15, 0x19, 0x95, 0x40, 0xde, 0x37, 
  0x47, 0xc3, 0x1a, 0x3f, 0x48, 0x13, 0x56, 0x7f, 0x16, 0xd8, 0xff, 0xff, 
  0x04, 0x00, 0x00, 0x00, 0x80, 0x04, 0x00, 0x00, 0x7f, 0x12, 0xf5, 0x37, 
  0xe4, 0x13, 0xea, 0xfc, 0xeb, 0x01, 0x4d, 0x38, 0x06, 0x23, 0x46, 0x98, 
  0xfe, 0xfc, 0xf3, 0x04, 0x04, 0x0d, 0x21, 0xf1, 0x81, 0xf3, 0xf8, 0xe1, 
  0xf0, 0x02, 0xf1, 0x02, 0x0a, 0xe8, 0xeb, 0xff, 0x06, 0xfe, 0x14, 0x26, 
  0xff, 0xfb, 0xfd, 0xfa, 0xfa, 0xdc, 0xf6, 0x0b, 0x7f, 0xf3, 0x21, 0x29, 
  0x1f, 0xf6, 0x16, 0xf0, 0xfe, 0xdd, 0x1d, 0xfe, 0xfc, 0x05, 0xe2, 0xea, 
  0x07, 0x04, 0x18, 0x02, 0xf6, 0xf7, 0xe8, 0x11, 0x81, 0xfe, 0xf4, 0xd9, 
  0xdf, 0xcd, 0x18, 0x01, 0xf8, 0xf2, 0xde, 0x2f, 0x3a, 0xdc, 0x4c, 0x7a, 
  0xe4, 0xe8, 0xdc, 0xf8, 0x14, 0xf6, 0xe7, 0x3c, 0x81, 0xfe, 0x15, 0x1c, 
  0xeb, 0x11, 0x08, 0x13, 0xdc, 0x16, 0xdf, 0x01, 0xe7, 0xd5, 0xfb, 0x02, 
  0x01, 0x10, 0xf7, 0x34, 0xfa, 0xc8, 0x0a, 0xdf, 0x7f, 0xf8, 0x0e, 0x29, 
  0x09, 0xee, 0xed, 0x07, 0xf5, 0xef, 0x00, 0x19, 0xe9, 0xf3, 0x10, 0x01, 
  0x08, 0x08, 0xf5, 0x0c, 0x06, 0x0a, 0xf3, 0xf5, 0xe8, 0xe2, 0x0a, 0x42, 
  0xde, 0x31, 0x5a, 0x07, 0x35, 0xbe, 0x8b, 0x7f, 0xfe, 0x07, 0x6b, 0xc4, 
  0x0a, 0x19, 0xbc, 0xfa, 0xec, 0xce, 0xea, 0xd7, 0x7f, 0x0a, 0x08, 0x12, 
  0xfc, 0xfa, 0x07, 0x08, 0x0a, 0xe7, 0x0d, 0xe9, 0x03, 0x03, 0x15, 0xef, 
  0x05, 0x00, 0xfc, 0xec, 0xfe, 0x07, 0x0a, 0x14, 0x81, 0x17, 0x07, 0xe4, 
  0x02, 0xe8, 0x39, 0xd8, 0xf8, 0xeb, 0xd7, 0xb8, 0x03, 0xe3, 0xed, 0xe6, 
  0x18, 0x0c, 0x0d, 0xea, 0x19, 0xcf, 0x1f, 0xc0, 0xe2, 0x22, 0xc1, 0x06, 
  0xfb, 0x06, 0x35, 0x12, 0x0f, 0xe5, 0xc5, 0x7f, 0x47, 0xe1, 0xf7, 0x7b, 
  0x02, 0xe9, 0xe1, 0xcf, 0x06, 0x0d, 0x1a, 0xe6, 0x35, 0xce, 0xfa, 0x0b, 
  0x22, 0xc9, 0x10, 0xdc, 0xfa, 0xea, 0xfb, 0x81, 0x3d, 0xf0, 0x2f, 0x05, 
  0xd9, 0x0d, 0x08, 0x0a, 0xb1, 0xf1, 0xb8, 0x01, 0x81, 0x28, 0xd9, 0x15, 
  0x14, 0xfb, 0xd4, 0x28, 0x22, 0xcf, 0xf2, 0x0f, 0x3d, 0xda, 0xf1, 0xeb, 
  0x12, 0xe8, 0xfc, 0xde, 0x07, 0xf7, 0x22, 0x1f, 0x7a, 0xfa, 0xc6, 0xc2, 
  0xff, 0xb1, 0xd0, 0xec, 0x66, 0xb5, 0xe8, 0xf8, 0x42, 0x1e, 0xbd, 0xe1, 
  0xf2, 0x32, 0x01, 0x81, 0xf3, 0x32, 0x0e, 0x3b, 0x7f, 0x08, 0x07, 0xfc, 
  0xff, 0xfb, 0xfe, 0xf8, 0xf4, 0x02, 0xff, 0xeb, 0x05, 0x04, 0xf8, 0xfe, 
  0xfb, 0xfd, 0x07, 0xfb, 0xfc, 0x14, 0xf7, 0x06, 0x7f, 0xf6, 0x1d, 0xcb, 
  0xe5, 0x34, 0xf7, 0x0a, 0x14, 0x0d, 0xe6, 0x12, 0x14, 0xfb, 0x02, 0x85, 
  0xff, 0x1e, 0xe5, 0x3a, 0xfb, 0xda, 0x11, 0x01, 0x7f, 0xed, 0xe5, 0x2c, 
  0xf9, 0xee, 0x2d, 0xeb, 0xf8, 0x35, 0x01, 0x05, 0x13, 0xd9, 0x0e, 0x83, 
  0xe3, 0x0e, 0xf2, 0xec, 0xde, 0xe8, 0x09, 0x02, 0x7f, 0x02, 0xf4, 0x06, 
  0xfd, 0x0a, 0x1f, 0x01, 0x00, 0xfb, 0xf7, 0x07, 0x04, 0x0e, 0xfe, 0x17, 
  0xfd, 0x09, 0xfd, 0x09, 0xfc, 0x00, 0xf6, 0x0d, 0x81, 0xfd, 0x00, 0x13, 
  0x0c, 0xeb, 0xf3, 0x0c, 0x03, 0x18, 0x0a, 0xe8, 0xf9, 0xe6, 0x0b, 0xf7, 
  0xfc, 0xef, 0xf6, 0xed, 0x07, 0xf3, 0x13, 0xf2, 0x81, 0x13, 0xfc, 0x0d, 
  0xea, 0x09, 0x47, 0xf3, 0xee, 0xeb, 0x1a, 0xe6, 0x06, 0x2b, 0xde, 0xc6, 
  0xde, 0x1f, 0xfe, 0x26, 0x08, 0xac, 0x2f, 0xfa, 0x7f, 0xf6, 0x03, 0x0f, 
  0x07, 0xf4, 0xd8, 0x04, 0x00, 0xf2, 0xfb, 0x23, 0x06, 0x09, 0xdf, 0xfb, 
  0x0d, 0xed, 0xf2, 0xf8, 0xef, 0x00, 0x0d, 0xf9, 0xfd, 0x19, 0x06, 0x10, 
  0x11, 0xf6, 0xb3, 0x24, 0xff, 0x1d, 0x49, 0x67, 0x50, 0x05, 0x7f, 0xae, 
  0x0a, 0x0f, 0xc3, 0xf6, 0x01, 0xf9, 0x1c, 0xeb, 0x81, 0x06, 0xfc, 0x02, 
  0xf1, 0x17, 0xed, 0xfd, 0xfe, 0xe1, 0x0a, 0xfa, 0xfa, 0x20, 0x10, 0x19, 
  0x01, 0x0b, 0xf9, 0xf2, 0xf5, 0x04, 0xfc, 0x06, 0x7f, 0xed, 0xf2, 0x18, 
  0xff, 0x07, 0xf0, 0x00, 0xf9, 0xf5, 0x12, 0x06, 0xee, 0xfb, 0x07, 0x23, 
  0x0a, 0xec, 0xf4, 0xf2, 0x0a, 0xdd, 0xfc, 0xeb, 0x7f, 0xfa, 0xf7, 0xfa, 
  0x03, 0xfc, 0x04, 0x00, 0xfd, 0xf7, 0x01, 0x0a, 0x01, 0xf9, 0xff, 0xf2, 
  0x00, 0x03, 0x0a, 0xf5, 0x0a, 0xfd, 0xf1, 0x03, 0x4b, 0x21, 0xd2, 0x46, 
  0xe9, 0xfe, 0x2c, 0x17, 0xee, 0x7b, 0x4c, 0xde, 0x2b, 0xc3, 0xa8, 0x81, 
  0xe9, 0xe5, 0xd6, 0xce, 0xe3, 0xab, 0x35, 0xdd, 0xe2, 0xf7, 0xe2, 0xdc, 
  0x11, 0xf5, 0x7f, 0x27, 0x02, 0x70, 0xf6, 0x7c, 0x2b, 0xe3, 0x17, 0xc1, 
  0x20, 0xcf, 0xcb, 0x25, 0x18, 0xca, 0xfb, 0x22, 0xc6, 0xfe, 0x1b, 0xd3, 
  0x1f, 0xdb, 0x1d, 0x07, 0x95, 0x7f, 0xac, 0xfa, 0xbc, 0x0d, 0xd7, 0xd5, 
  0xd8, 0xd9, 0x3a, 0xc2, 0xf9, 0x75, 0x0e, 0x28, 0xdc, 0xf3, 0x03, 0xb5, 
  0x13, 0x0c, 0xc5, 0xfe, 0x45, 0x27, 0xcb, 0x7f, 0xe8, 0x1f, 0x28, 0x2d, 
  0xe3, 0x26, 0x05, 0x55, 0xd6, 0xc5, 0x4b, 0x9c, 0x81, 0xe5, 0x08, 0xe8, 
  0xe3, 0x01, 0xc3, 0xfd, 0x01, 0xd9, 0xf2, 0x0b, 0x0e, 0xc2, 0x0c, 0x17, 
  0x0f, 0xbb, 0xea, 0x60, 0xf4, 0xe5, 0x32, 0xc3, 0xd5, 0x2c, 0xf3, 0xd8, 
  0xfd, 0xcb, 0x7f, 0xc3, 0x34, 0x41, 0x40, 0xfd, 0x03, 0xb2, 0x06, 0x04, 
  0xec, 0xcd, 0x1a, 0x04, 0xe5, 0x31, 0xf3, 0x30, 0x7f, 0x02, 0x03, 0xfb, 
  0xf4, 0x03, 0x05, 0x03, 0xf7, 0xf2, 0x02, 0xf2, 0x00, 0x04, 0xf7, 0xe8, 
  0xfa, 0x06, 0x02, 0x11, 0xfe, 0x05, 0x09, 0x03, 0xb6, 0xf3, 0x3c, 0x22, 
  0x0c, 0xd9, 0xa4, 0x30, 0xdc, 0x76, 0xf9, 0x84, 0x24, 0xdc, 0x6c, 0xfa, 
  0xf8, 0xa8, 0xe2, 0xb6, 0xd2, 0x7f, 0x52, 0x33, 0x7f, 0x11, 0x06, 0x0c, 
  0x09, 0x02, 0x0c, 0xf9, 0x01, 0xef, 0x0b, 0xf1, 0x03, 0xf3, 0x0c, 0xe3, 
  0x0b, 0xf8, 0x06, 0xeb, 0x04, 0xf0, 0xff, 0x07, 0x7f, 0x08, 0xfc, 0xf1, 
  0x0e, 0xfb, 0x0b, 0x0c, 0xe5, 0x24, 0x0a, 0x20, 0x11, 0xef, 0xf4, 0x1c, 
  0x13, 0x06, 0x00, 0xf6, 0x0e, 0x0f, 0xf0, 0x0b, 0x81, 0xf6, 0x00, 0xef, 
  0xfb, 0x07, 0x01, 0x02, 0x01, 0x12, 0x00, 0xf3, 0x02, 0x00, 0xf1, 0xf2, 
  0xff, 0xfe, 0xf7, 0x07, 0xfe, 0xf9, 0x0b, 0xf7, 0x81, 0x12, 0x18, 0xf6, 
  0x16, 0xe0, 0xf6, 0x06, 0x22, 0x17, 0xd1, 0x24, 0x26, 0xe2, 0xe9, 0x9c, 
  0xf5, 0xdc, 0xe7, 0xc8, 0x03, 0xef, 0xfa, 0x1e, 0x7f, 0x24, 0xe0, 0x1a, 
  0x1a, 0x4a, 0x46, 0xbe, 0x2f, 0xf5, 0xde, 0x5f, 0x15, 0xe5, 0xc3, 0x13, 
  0x16, 0xd7, 0x0d, 0x44, 0xf2, 0xfa, 0xd0, 0x13, 0x30, 0xa6, 0xe1, 0xa6, 
  0x26, 0xec, 0xeb, 0xe1, 0xee, 0xd1, 0x2b, 0x94, 0x47, 0x16, 0x81, 0x83, 
  0xf5, 0x42, 0xcd, 0x05, 0xd1, 0x94, 0xbb, 0x28, 0x81, 0xf8, 0xf3, 0xca, 
  0x05, 0xde, 0x32, 0xe8, 0x00, 0x2f, 0x0c, 0xd5, 0xf9, 0xee, 0xf7, 0xf3, 
  0x0f, 0xf1, 0xf6, 0xe1, 0x0d, 0x29, 0x11, 0x02, 0xf1, 0xf2, 0xf8, 0xe3, 
  0xfb, 0xf4, 0xd9, 0x0c, 0x00, 0x7f, 0xdc, 0x33, 0xf3, 0x28, 0x13, 0x03, 
  0x07, 0xfb, 0xf9, 0x33, 0x12, 0xff, 0x32, 0x27, 0x99, 0x03, 0xcb, 0xf6, 
  0x1e, 0x1d, 0xb3, 0x20, 0x25, 0xef, 0x23, 0xb1, 0xdb, 0xfa, 0x7f, 0x9d, 
  0x46, 0xd1, 0x23, 0xae, 0x37, 0x04, 0xe0, 0x81, 0xad, 0x3d, 0xbc, 0x5b, 
  0xcc, 0xdf, 0xa8, 0x29, 0xce, 0x84, 0x9d, 0x7f, 0xa8, 0xa3, 0xdb, 0x21, 
  0x0a, 0xf7, 0x32, 0x27, 0x1b, 0x48, 0xb6, 0xf6, 0x86, 0xf6, 0x29, 0xde, 
  0x3c, 0xba, 0x85, 0xe6, 0x12, 0xe5, 0xb2, 0x5c, 0x2b, 0xc6, 0xc0, 0x81, 
  0xea, 0xb9, 0xf3, 0x39, 0x27, 0x01, 0x18, 0xcb, 0x7f, 0x0d, 0xf4, 0x10, 
  0x04, 0x0b, 0x0d, 0x07, 0x07, 0xf7, 0xf1, 0x13, 0x07, 0xf1, 0x00, 0x07, 
  0x04, 0x05, 0x04, 0x01, 0x07, 0x09, 0xf3, 0xf5, 0x7f, 0xfe, 0xf6, 0x04, 
  0x05, 0x02, 0x02, 0x01, 0x02, 0xf2, 0xfc, 0x0e, 0xf9, 0x05, 0x08, 0x02, 
  0x01, 0xfd, 0x09, 0xfb, 0x04, 0x03, 0xfa, 0x08, 0xb7, 0xf5, 0x24, 0x4e, 
  0x19, 0x57, 0xd5, 0xb4, 0xe1, 0x8c, 0x7f, 0xf9, 0x05, 0x4f, 0xef, 0xe9, 
  0xf0, 0x1f, 0x52, 0x46, 0x3b, 0x0f, 0x21, 0xcb, 0x7f, 0xfd, 0x07, 0xfa, 
  0xfd, 0x01, 0x0a, 0x08, 0x05, 0xf5, 0x0f, 0xf8, 0x07, 0x01, 0xf4, 0xfc, 
  0x01, 0x01, 0x07, 0xfa, 0x00, 0xf4, 0x02, 0x0a, 0xe8, 0x2c, 0x15, 0xe3, 
  0xf5, 0xd4, 0xc4, 0x0f, 0xeb, 0xd4, 0xc8, 0x2c, 0xf1, 0x0c, 0x02, 0x7f, 
  0x08, 0x04, 0x0a, 0x2c, 0xf1, 0x04, 0x12, 0xde, 0xa2, 0xdc, 0xff, 0xff, 
  0x04, 0x00, 0x00, 0x00, 0xc0, 0x00, 0x00, 0x00, 0xf4, 0x4c, 0xe9, 0xbe, 
  0x22, 0x33, 0x64, 0x3f, 0x58, 0x0e, 0x37, 0xbf, 0x6f, 0x4b, 0x93, 0x3f, 
  0xfd, 0x6b, 0x05, 0x3f, 0x5f, 0xe8, 0xc3, 0x3d, 0x45, 0x5c, 0x74, 0xbe, 
  0x1f, 0x37, 0x1f, 0xbf, 0x03, 0x53, 0x4c, 0x3f, 0x4f, 0xee, 0x27, 0x3f, 
  0xff, 0x83, 0x98, 0x3f, 0x4f, 0x3d, 0x84, 0x3d, 0x1d, 0xd1, 0x1c, 0x3f, 
  0x10, 0x39, 0x11, 0x3f, 0x75, 0x28, 0x9d, 0xbe, 0xf8, 0x66, 0x95, 0x3f, 
  0xca, 0x72, 0x19, 0xbf, 0xdd, 0x67, 0x6c, 0x3f, 0x9a, 0x51, 0x55, 0x3c, 
  0x90, 0xee, 0x3b, 0x3f, 0xca, 0x3c, 0x86, 0xbe, 0xf2, 0x17, 0x05, 0xbf, 
  0xb4, 0xd7, 0x5a, 0x3f, 0x95, 0xef, 0x4d, 0x3f, 0xbc, 0xad, 0x9b, 0x3f, 
  0xd0, 0xe6, 0x3b, 0xbc, 0x7a, 0xf8, 0x4b, 0x3f, 0xc3, 0xe7, 0x87, 0x3c, 
  0x83, 0xbe, 0x5f, 0x3f, 0x4f, 0x00, 0xf6, 0x3e, 0xa7, 0x6c, 0xe3, 0x3d, 
  0xbd, 0x30, 0xdb, 0x3e, 0xd2, 0xd7, 0xa2, 0xbe, 0xf3, 0xae, 0x7e, 0xbe, 
  0x57, 0xa2, 0x12, 0x3f, 0x8a, 0xf9, 0x36, 0x3f, 0xc7, 0x0f, 0x87, 0xbe, 
  0x15, 0x9c, 0x60, 0x3f, 0xad, 0x26, 0x4e, 0x3f, 0xa9, 0x1e, 0x4e, 0xbe, 
  0x21, 0xeb, 0x55, 0x3e, 0xa6, 0xd0, 0x8a, 0x3f, 0x04, 0x0f, 0x9e, 0x3f, 
  0x41, 0xc6, 0xcc, 0xbe, 0x39, 0xb2, 0x82, 0xbe, 0x6b, 0xbc, 0x6b, 0xbf, 
  0x81, 0x10, 0x11, 0xbf, 0x4c, 0xb4, 0x36, 0x3f, 0x6e, 0xdd, 0xff, 0xff, 
  0x04, 0x00, 0x00, 0x00, 0x60, 0x00, 0x00, 0x00, 0x20, 0x71, 0x64, 0xbd, 
  0x1b, 0x26, 0xf6, 0xbd, 0xe0, 0x60, 0x3c, 0x3e, 0xb6, 0x3e, 0x16, 0x3e, 
  0x5b, 0x63, 0x6e, 0x3d, 0xde, 0x85, 0xbf, 0x3e, 0xd4, 0xd9, 0xd6, 0x3d, 
  0xeb, 0xd5, 0xab, 0x3d, 0xc5, 0xbf, 0xd2, 0x3d, 0x8a, 0x61, 0xcf, 0xbc, 
  0x46, 0xb0, 0x3c, 0x3d, 0xb8, 0xa4, 0x9e, 0x3d, 0x33, 0xcd, 0xe3, 0x3d, 
  0xc0, 0xd3, 0x3c, 0x3e, 0x3b, 0xff, 0xa6, 0x38, 0xed, 0x66, 0xde, 0x3d, 
  0xce, 0x26, 0xca, 0x3d, 0x06, 0x49, 0x96, 0x3e, 0x88, 0x96, 0xbe, 0xbd, 
  0x1a, 0xbe, 0x23, 0x3e, 0xa6, 0x1a, 0x9f, 0x3d, 0xb9, 0x61, 0x36, 0x3d, 
  0xbe, 0xe0, 0x9a, 0x3d, 0x08, 0xdb, 0x0a, 0x3e, 0xda, 0xdd, 0xff, 0xff, 
  0x04, 0x00, 0x00, 0x00, 0x80, 0x04, 0x00, 0x00, 0x25, 0x47, 0x32, 0xbe, 
  0x59, 0xd1, 0x16, 0xbe, 0x42, 0x45, 0xa4, 0x3d, 0xfc, 0x3f, 0xdf, 0x3d, 
  0x6f, 0x78, 0x5f, 0x3e, 0x31, 0xbd, 0xef, 0xbe, 0xb4, 0x3e, 0xce, 0x3e, 
  0xe4, 0x77, 0xad, 0xbe, 0x02, 0x01, 0x75, 0xbe, 0x1e, 0x9a, 0xa1, 0x3e, 
  0x66, 0x33, 0xaf, 0x3e, 0xfb, 0xc2, 0xba, 0xbe, 0x91, 0xf1, 0xab, 0xbe, 
  0x13, 0x5f, 0x6a, 0x3e, 0x15, 0x5a, 0x86, 0x3e, 0xc9, 0xa3, 0xe6, 0xbe, 
  0x6d, 0xd9, 0xb6, 0xbe, 0xdf, 0x89, 0x73, 0xbe, 0x9c, 0x1f, 0x92, 0xbe, 
  0x64, 0xcb, 0xf7, 0x3b, 0x5b, 0xae, 0x08, 0xbe, 0x1d, 0x7f, 0xb1, 0xbe, 
  0x49, 0x15, 0xe9, 0xbd, 0xfb, 0x7d, 0x11, 0xbe, 0xa4, 0x32, 0xaa, 0x3e, 
  0x52, 0xd8, 0x7d, 0x3d, 0x82, 0x89, 0xcd, 0xbd, 0xdc, 0xef, 0x43, 0x3d, 
  0x04, 0x60, 0x1f, 0x3e, 0x72, 0x69, 0x74, 0x3d, 0x21, 0x63, 0x94, 0x3e, 
  0x50, 0xf4, 0x1a, 0xbe, 0xf9, 0x58, 0xe3, 0x3d, 0xff, 0x1e, 0x99, 0x3e, 
  0xbb, 0xc1, 0x12, 0xbf, 0xd4, 0x51, 0xcf, 0x3d, 0xb9, 0x33, 0x07, 0x3e, 
  0xb4, 0xd3, 0x79, 0x3e, 0x30, 0xe5, 0x3e, 0xbe, 0x64, 0xd6, 0x3e, 0x3d, 
  0x44, 0x99, 0x65, 0x3e, 0x8e, 0xab, 0xd2, 0xbe, 0x60, 0x1f, 0x84, 0x3e, 
  0xd9, 0x06, 0xaa, 0xbe, 0xb6, 0x0c, 0x86, 0x3d, 0xf5, 0xab, 0x67, 0xbd, 
  0x5d, 0x11, 0x93, 0x3e, 0x22, 0xf1, 0x92, 0xbe, 0x96, 0xa6, 0x56, 0x3d, 
  0x65, 0x1d, 0xba, 0x3e, 0xa1, 0x5e, 0x41, 0xba, 0xc9, 0x0b, 0x83, 0x3e, 
  0x96, 0xf0, 0x47, 0xbe, 0x2e, 0xcf, 0xd0, 0x3e, 0xfb, 0xf7, 0x55, 0x3d, 
  0xcf, 0x63, 0x2e, 0x3e, 0x3d, 0xb1, 0x40, 0x3e, 0x96, 0xa7, 0x02, 0x3e, 
  0xb0, 0x0f, 0x0a, 0xbf, 0x59, 0xc5, 0x33, 0xbe, 0x92, 0xcf, 0x6c, 0xbe, 
  0x9f, 0xf1, 0xc4, 0xb8, 0x80, 0xff, 0x27, 0x3e, 0xda, 0xc8, 0x34, 0x3c, 
  0x7c, 0x9a, 0x47, 0xbe, 0xe3, 0x3f, 0x8d, 0x3d, 0x98, 0x4f, 0x0c, 0xbe, 
  0xf7, 0x16, 0x86, 0x3e, 0x40, 0x76, 0x39, 0x3e, 0xbd, 0xe3, 0xd4, 0x3e, 
  0x11, 0xa8, 0xf5, 0x3d, 0xa3, 0xd5, 0x8a, 0xbd, 0x58, 0x6e, 0xc4, 0x3e, 
  0x79, 0xec, 0xa0, 0xbe, 0x1a, 0xe2, 0x9f, 0xbe, 0x2e, 0x1b, 0x1b, 0xbe, 
  0xe1, 0xb7, 0xa6, 0x3e, 0xd8, 0x00, 0xb2, 0x3e, 0x9c, 0x46, 0x7b, 0x3e, 
  0x16, 0xc6, 0x7c, 0x3e, 0x46, 0x1c, 0xab, 0xbd, 0x8a, 0xe1, 0x8e, 0xbe, 
  0xf8, 0x7d, 0x83, 0xbe, 0x0f, 0x2f, 0x17, 0x3e, 0x0b, 0x8a, 0xdd, 0x3e, 
  0xfb, 0x28, 0xb0, 0xbd, 0xf1, 0x66, 0x5a, 0xbe, 0xea, 0xfe, 0xb8, 0x3e, 
  0x3e, 0x3c, 0xae, 0x3e, 0xe1, 0x3e, 0x4a, 0xbe, 0xa7, 0xf5, 0x5a, 0xbe, 
  0x8f, 0x0b, 0x73, 0xbe, 0x8d, 0x6d, 0x4b, 0xbe, 0x93, 0x4f, 0xaf, 0x3e, 
  0xb9, 0x16, 0x9c, 0x3e, 0x24, 0xe8, 0x78, 0xbe, 0x5b, 0x05, 0x97, 0xbe, 
  0x24, 0x13, 0x5c, 0x3c, 0x41, 0xe1, 0xaf, 0x3c, 0xeb, 0x78, 0x9d, 0x3e, 
  0xc6, 0xca, 0x9b, 0x3e, 0x1b, 0xc6, 0x39, 0xbc, 0xd6, 0x28, 0x8d, 0xbe, 
  0xd9, 0xe3, 0x51, 0xbe, 0xa5, 0xb2, 0x92, 0x3e, 0x6e, 0x3b, 0x47, 0xbd, 
  0xfd, 0x0c, 0x11, 0x3e, 0x66, 0x90, 0x74, 0x3e, 0x3f, 0x13, 0xc1, 0x3d, 
  0x5a, 0xf6, 0x6b, 0xbe, 0xfa, 0x46, 0xf7, 0xbe, 0x17, 0x3d, 0x6a, 0xbd, 
  0x00, 0xbc, 0xb4, 0x3e, 0x85, 0x7e, 0xdf, 0xbd, 0xa3, 0xa7, 0x68, 0x3e, 
  0x44, 0x5a, 0xeb, 0xbb, 0xdc, 0x0a, 0x2e, 0xbe, 0x00, 0x8d, 0x45, 0xbe, 
  0xc5, 0x84, 0xe1, 0x3d, 0xa5, 0x54, 0x77, 0x3e, 0x3a, 0xf3, 0x85, 0x3e, 
  0xc5, 0x9b, 0x20, 0x3d, 0x08, 0x35, 0xc9, 0xbd, 0x3f, 0x01, 0x58, 0xbe, 
  0x0c, 0x3b, 0xe6, 0xbc, 0x45, 0xcc, 0x77, 0x3e, 0xdd, 0x0f, 0xe9, 0x3e, 
  0x40, 0xa4, 0x64, 0xbe, 0x35, 0x49, 0x38, 0xbe, 0x3e, 0x0c, 0x36, 0x3e, 
  0xd5, 0x5f, 0x79, 0xbd, 0xc5, 0xee, 0x0c, 0x3d, 0x2d, 0xc3, 0xb4, 0xbb, 
  0xae, 0x3d, 0x83, 0xbe, 0x20, 0xc2, 0xf3, 0x3d, 0x12, 0x0f, 0x15, 0x3f, 
  0xc0, 0x97, 0xf1, 0x3e, 0x16, 0xbb, 0xba, 0xbe, 0x00, 0xa2, 0xa7, 0xbe, 
  0x53, 0xbb, 0x5b, 0xbc, 0x64, 0xe7, 0x08, 0x3d, 0xb1, 0x67, 0x75, 0x3e, 
  0xce, 0x6a, 0x05, 0xbe, 0xd1, 0x60, 0x93, 0x3e, 0x85, 0x72, 0xbd, 0x3d, 
  0x62, 0x51, 0x50, 0xbd, 0x11, 0x61, 0xd9, 0x3e, 0x74, 0x78, 0xd9, 0xbe, 
  0xb6, 0xa9, 0x43, 0x3e, 0xcc, 0xfe, 0xb6, 0xbe, 0x12, 0x16, 0x1d, 0xbe, 
  0x68, 0x5d, 0x1f, 0xbc, 0x4f, 0x68, 0x94, 0xbe, 0x00, 0x27, 0xa8, 0xbd, 
  0x6d, 0xdf, 0xd2, 0x3e, 0x64, 0x36, 0x85, 0x3e, 0x84, 0xe4, 0x43, 0xbe, 
  0x14, 0x95, 0x20, 0x3e, 0x69, 0x9c, 0x3e, 0xbc, 0x84, 0x73, 0x88, 0xbe, 
  0x2d, 0x99, 0x86, 0xbe, 0x10, 0xb7, 0xa8, 0xbe, 0x6a, 0xd3, 0x69, 0x3e, 
  0xc6, 0x3d, 0xc4, 0xbd, 0xa6, 0x70, 0xe6, 0xbd, 0x21, 0x01, 0x76, 0xbe, 
  0x26, 0x09, 0xa0, 0x3d, 0x7d, 0xf0, 0x86, 0xbb, 0x34, 0xd5, 0xaa, 0xbe, 
  0xa9, 0x6e, 0x83, 0x3e, 0xe4, 0x22, 0x98, 0xbe, 0x76, 0x89, 0x53, 0xbe, 
  0xdf, 0xb3, 0xd2, 0x3d, 0x0c, 0xd6, 0xa7, 0x3e, 0xfe, 0x49, 0x8d, 0x3e, 
  0x65, 0x9b, 0x96, 0xbe, 0xbd, 0x80, 0xca, 0x3d, 0x1f, 0xf9, 0x80, 0x3e, 
  0xaa, 0x5c, 0x87, 0xbe, 0x75, 0x89, 0x82, 0x3e, 0x7b, 0x75, 0xd1, 0xbe, 
  0xd1, 0xc2, 0x5b, 0xbe, 0xbd, 0x27, 0x4c, 0x3e, 0x7a, 0x62, 0x15, 0xbe, 
  0x91, 0x9c, 0x0c, 0xbe, 0x75, 0xed, 0x43, 0x3d, 0x3d, 0x9f, 0x8d, 0x3e, 
  0x3f, 0x0b, 0x8c, 0xbe, 0xe3, 0x75, 0xcc, 0x3d, 0xf4, 0x6b, 0x1a, 0xbe, 
  0xed, 0xfa, 0xad, 0x3e, 0xa4, 0x87, 0xa1, 0xbe, 0x61, 0x50, 0x9e, 0xbe, 
  0x97, 0xdb, 0xb5, 0x3c, 0x80, 0x54, 0xd0, 0xbe, 0x28, 0xdb, 0xa7, 0x3d, 
  0xf0, 0x9a, 0x59, 0xbe, 0x6a, 0x50, 0x23, 0xbe, 0x1d, 0x3f, 0x95, 0xbe, 
  0x1a, 0x8f, 0x75, 0xbe, 0xe9, 0xf4, 0x20, 0x3e, 0x69, 0x60, 0xab, 0x3e, 
  0xf1, 0x58, 0x99, 0x3e, 0x7b, 0x91, 0xfd, 0x3e, 0x7c, 0x74, 0x8f, 0xbe, 
  0x25, 0xf5, 0xb4, 0x3d, 0x4b, 0x7d, 0x6e, 0x3d, 0x5b, 0x6d, 0xba, 0x3e, 
  0xc4, 0xb8, 0x3a, 0xbc, 0xc1, 0xf5, 0x27, 0x3e, 0x0b, 0xfd, 0xd1, 0x3d, 
  0xe0, 0x29, 0xdc, 0x3c, 0x5e, 0x61, 0xfe, 0xbd, 0x4d, 0x95, 0x36, 0xbe, 
  0x4f, 0xc2, 0xb7, 0xbe, 0x58, 0xf1, 0xb0, 0x3e, 0xaf, 0x62, 0xb3, 0x3e, 
  0xfd, 0x45, 0x81, 0xbe, 0xb8, 0x76, 0xae, 0xbb, 0x67, 0x95, 0x30, 0xbe, 
  0x67, 0xa7, 0x3c, 0xbe, 0xdd, 0x10, 0xf1, 0xbe, 0x61, 0xf9, 0x84, 0x3e, 
  0xce, 0xab, 0x78, 0xbe, 0xb7, 0x27, 0x62, 0xbc, 0x45, 0x5a, 0xe6, 0xbe, 
  0xec, 0xfa, 0x91, 0xbe, 0x0c, 0x84, 0x28, 0x3e, 0x61, 0xc9, 0x2b, 0xbe, 
  0x6d, 0xc2, 0xd7, 0x3e, 0x73, 0xbc, 0x82, 0xbe, 0x41, 0xc6, 0xd9, 0x3e, 
  0xce, 0xaf, 0x4c, 0x3e, 0x78, 0xee, 0x88, 0xbe, 0x20, 0xb6, 0xa8, 0xbe, 
  0xf9, 0xbc, 0x3e, 0xbe, 0x13, 0x41, 0x86, 0xbe, 0x73, 0xe4, 0xbf, 0x3e, 
  0x23, 0x02, 0xa3, 0x3e, 0x4b, 0x02, 0xa4, 0x3d, 0xef, 0x5b, 0x55, 0xbe, 
  0xfa, 0xb6, 0x8e, 0x3e, 0x69, 0x70, 0x9e, 0x3e, 0x16, 0xde, 0xfa, 0x3c, 
  0x62, 0xae, 0x67, 0x3e, 0xe6, 0xe5, 0x4f, 0x3e, 0x88, 0x9e, 0xc2, 0xbd, 
  0x92, 0xeb, 0x8b, 0xbe, 0xdd, 0x20, 0x27, 0x3e, 0x5d, 0xf4, 0x4f, 0xbe, 
  0x03, 0x2b, 0xf2, 0x3d, 0x44, 0x63, 0xcd, 0x3d, 0xb3, 0x96, 0xf8, 0x3c, 
  0xf6, 0xdd, 0x18, 0xbf, 0xee, 0x0c, 0x27, 0x3e, 0x06, 0x23, 0xf1, 0x3e, 
  0xf5, 0xdc, 0xb2, 0xbe, 0x38, 0x7a, 0xb7, 0xbb, 0x0d, 0x2d, 0x89, 0xbe, 
  0xda, 0xac, 0x6a, 0x3e, 0x48, 0x31, 0x34, 0xbe, 0x95, 0xb1, 0x18, 0xbe, 
  0xbb, 0xda, 0x3d, 0x3e, 0x20, 0x26, 0x8c, 0xbd, 0xa2, 0xca, 0x12, 0x3d, 
  0xd2, 0x30, 0x51, 0x3e, 0x7f, 0x1d, 0x20, 0xbe, 0x77, 0xd8, 0xd4, 0x3c, 
  0x0b, 0x76, 0x43, 0x3d, 0xe0, 0xa0, 0x15, 0x3e, 0x09, 0x95, 0xbf, 0xbe, 
  0xb1, 0x2e, 0x82, 0x3c, 0xf1, 0x4f, 0x22, 0xbd, 0x92, 0x53, 0x6e, 0xbc, 
  0xab, 0x6c, 0x58, 0xbe, 0x44, 0x94, 0x44, 0x3e, 0x4c, 0xce, 0x8e, 0xbd, 
  0xb1, 0xda, 0xb4, 0x3e, 0x42, 0xa2, 0x8c, 0x3e, 0xbc, 0x6a, 0x04, 0x3e, 
  0x0a, 0xfc, 0x04, 0xbf, 0x04, 0xc1, 0x9c, 0x3c, 0xce, 0x08, 0xc9, 0x3e, 
  0x9b, 0x91, 0x75, 0x3e, 0x8d, 0x33, 0x99, 0xbe, 0xae, 0x8e, 0x8c, 0x3c, 
  0x1e, 0xfc, 0x8a, 0xbe, 0x10, 0x7d, 0x73, 0x3d, 0x66, 0xe2, 0xff, 0xff, 
  0x04, 0x00, 0x00, 0x00, 0x30, 0x00, 0x00, 0x00, 0x49, 0x74, 0xd4, 0x3f, 
  0x18, 0x0b, 0x6f, 0xbd, 0x96, 0xc6, 0xb2, 0xbe, 0x4c, 0xf0, 0x0e, 0xbf, 
  0x1c, 0x86, 0x03, 0x3d, 0xf7, 0x48, 0x7b, 0xbe, 0x08, 0xa0, 0x74, 0x3f, 
  0x80, 0x89, 0xcb, 0x3f, 0x79, 0x45, 0x49, 0x3f, 0x37, 0x88, 0x6c, 0x3f, 
  0xa4, 0x19, 0x66, 0x3f, 0x7a, 0x0e, 0xee, 0x3e, 0xa2, 0xe2, 0xff, 0xff, 
  0x04, 0x00, 0x00, 0x00, 0x60, 0x00, 0x00, 0x00, 0x34, 0x9b, 0xd2, 0x3e, 
  0x05, 0xfb, 0x03, 0xbf, 0x14, 0xf9, 0xe1, 0x3e, 0x09, 0x1f, 0x7e, 0x3e, 
  0xc5, 0x3f, 0xbf, 0x3c, 0x87, 0x32, 0x30, 0x3f, 0x0a, 0x75, 0x18, 0xbf, 
  0xcb, 0x81, 0x82, 0x3e, 0x9a, 0x2e, 0x9f, 0xbe, 0x69, 0x92, 0x8f, 0xbf, 
  0x0d, 0x25, 0x65, 0x3d, 0xe5, 0xc7, 0x8f, 0xbf, 0xc1, 0xde, 0x57, 0x3f, 
  0xdd, 0x54, 0x56, 0xbe, 0x2d, 0x19, 0xfa, 0xbd, 0x68, 0xff, 0x7e, 0xbf, 
  0x82, 0x72, 0x83, 0x3f, 0xf8, 0xf1, 0xdf, 0xbe, 0x38, 0x28, 0xa7, 0x3f, 
  0x90, 0x38, 0x67, 0x3f, 0x1a, 0x72, 0x41, 0x3e, 0x52, 0xcf, 0xa6, 0x3c, 
  0x33, 0xcf, 0x88, 0x3e, 0xb1, 0x31, 0x1c, 0xbf, 0x0e, 0xe3, 0xff, 0xff, 
  0x04, 0x00, 0x00, 0x00, 0x00, 0x0c, 0x00, 0x00, 0x27, 0xc7, 0x25, 0xbd, 
  0x8f, 0xa5, 0x99, 0xbd, 0x5d, 0x13, 0x2c, 0xbd, 0x95, 0x4a, 0x1c, 0xbd, 
  0x6e, 0x07, 0x6f, 0xbd, 0xb1, 0xc5, 0x8e, 0x3c, 0xd3, 0x55, 0xb0, 0xbc, 
  0xf1, 0x18, 0x6b, 0xbc, 0xf0, 0x65, 0x2d, 0x3e, 0xd8, 0x75, 0x1f, 0x3d, 
  0x51, 0x58, 0x3f, 0xbe, 0x8f, 0xe1, 0x13, 0x3e, 0x0e, 0xf0, 0xb0, 0x3d, 
  0x9f, 0x83, 0x9a, 0xbd, 0x07, 0xdc, 0xd2, 0xbd, 0x01, 0x56, 0xb6, 0xbd, 
  0x5c, 0x23, 0xae, 0xbd, 0x24, 0x96, 0x33, 0xbc, 0x39, 0xab, 0xa3, 0xbd, 
  0x9c, 0x50, 0x9d, 0xbc, 0x90, 0x21, 0xd8, 0xbd, 0x0d, 0xd5, 0x6c, 0xbd, 
  0x32, 0x39, 0x0e, 0x3d, 0x9b, 0xe8, 0xda, 0x3d, 0x01, 0xda, 0xe7, 0xbd, 
  0xf5, 0xb0, 0xa6, 0x3d, 0x70, 0x84, 0xcf, 0xbc, 0x07, 0x39, 0x3f, 0x3d, 
  0x57, 0xdb, 0x3d, 0xbd, 0x3b, 0xfc, 0x0d, 0x3e, 0xbb, 0x6e, 0x36, 0x3c, 
  0x1c, 0xc3, 0x49, 0xbd, 0x1a, 0xaa, 0xaf, 0x3d, 0xfd, 0x3d, 0x55, 0x3d, 
  0x74, 0x78, 0x90, 0xbd, 0x62, 0xc4, 0x44, 0x3d, 0xe5, 0x0b, 0x09, 0x3e, 
  0x0c, 0x0a, 0x08, 0xbd, 0x87, 0xd3, 0x94, 0x3d, 0x2d, 0x93, 0x8d, 0xbd, 
  0x5a, 0x81, 0x8d, 0x3d, 0xc8, 0xe1, 0xa4, 0xbc, 0x4e, 0x35, 0x41, 0x3d, 
  0x16, 0xb6, 0x0f, 0x3d, 0xfa, 0x6e, 0xf6, 0x3d, 0x02, 0xe1, 0x84, 0x3c, 
  0x7c, 0x1d, 0x14, 0xbd, 0xf0, 0x46, 0xa9, 0xbc, 0x99, 0x91, 0x49, 0x3b, 
  0x13, 0xa0, 0x5f, 0xbd, 0x01, 0xd5, 0xd4, 0xbc, 0x18, 0xce, 0x0c, 0x3d, 
  0x16, 0x63, 0xa8, 0xbd, 0x34, 0x46, 0x88, 0xbc, 0x0b, 0x7e, 0x5d, 0xbd, 
  0x3a, 0x35, 0xcd, 0xbd, 0xa6, 0xd6, 0x9f, 0x3d, 0xf3, 0x07, 0x61, 0x3d, 
  0x86, 0x4b, 0x15, 0xbe, 0xe9, 0x55, 0xd7, 0x3d, 0xbb, 0x19, 0x85, 0x3c, 
  0x56, 0x3c, 0x85, 0x3c, 0xd7, 0x1d, 0x4a, 0xbd, 0x09, 0x69, 0x49, 0xbd, 
  0x8a, 0xb1, 0x95, 0xbc, 0xb2, 0xd4, 0x34, 0x3d, 0xf2, 0x59, 0x98, 0xbd, 
  0x1c, 0x06, 0xb9, 0xbc, 0xd5, 0xea, 0x27, 0xbd, 0x48, 0x2c, 0x90, 0xbd, 
  0xe5, 0xce, 0x9b, 0xbc, 0x10, 0x36, 0x05, 0x3e, 0x96, 0x8e, 0x17, 0xbe, 
  0x7f, 0x20, 0x74, 0x3d, 0xe2, 0xeb, 0x77, 0x3d, 0xdd, 0x6a, 0xb7, 0xbc, 
  0x60, 0xf2, 0x02, 0xbe, 0xfb, 0x31, 0x19, 0x3e, 0x59, 0xbb, 0x82, 0xbd, 
  0xe6, 0xdd, 0x0e, 0xbd, 0x33, 0xc8, 0x5b, 0x3d, 0xb2, 0x09, 0x7b, 0x3d, 
  0x45, 0xf6, 0x46, 0xbd, 0x4b, 0x59, 0x9e, 0x3b, 0xa2, 0x5b, 0xf1, 0x3c, 
  0x79, 0xf3, 0x8f, 0xbd, 0x7e, 0xc6, 0x20, 0x3e, 0x43, 0x23, 0x8d, 0xbd, 
  0xfa, 0x07, 0x4e, 0x3c, 0xd7, 0x9f, 0xd3, 0x3d, 0xb8, 0x21, 0x99, 0x3d, 
  0xe1, 0xa6, 0xa0, 0x3d, 0x8a, 0x94, 0x9d, 0x3d, 0x45, 0x3b, 0xe1, 0xbc, 
  0x4e, 0x7c, 0x06, 0xbd, 0x7c, 0x40, 0xbb, 0x3d, 0xe4, 0xd6, 0x9a, 0xbd, 
  0xcb, 0x6d, 0xac, 0x3d, 0xe8, 0x63, 0xa2, 0xbc, 0xba, 0x0e, 0x4f, 0x3e, 
  0xfe, 0xf4, 0x13, 0xbe, 0x3b, 0x9d, 0x20, 0x3c, 0x2f, 0xd7, 0xb0, 0xbc, 
  0x56, 0xce, 0x35, 0xbe, 0xc2, 0x61, 0x39, 0x3c, 0x88, 0xba, 0x33, 0x3c, 
  0x7f, 0x9e, 0x35, 0x3e, 0x9c, 0xfb, 0x92, 0xbd, 0x13, 0xb8, 0xb1, 0xbc, 
  0xa2, 0xd9, 0x6e, 0x3e, 0x16, 0x28, 0xa0, 0xbd, 0x7d, 0xad, 0x32, 0x3c, 
  0x0b, 0x2b, 0xad, 0xbc, 0x9c, 0x58, 0xcb, 0x3c, 0x94, 0xb0, 0x6e, 0xbd, 
  0xe2, 0x42, 0xb1, 0x3c, 0x30, 0x40, 0x6b, 0xbd, 0xd2, 0x96, 0x8d, 0xbe, 
  0x9a, 0x84, 0x87, 0xbd, 0x8c, 0x2b, 0x0f, 0x3d, 0xff, 0xfd, 0x10, 0xbe, 
  0xe6, 0x88, 0x98, 0x3c, 0xeb, 0xe7, 0x41, 0x3e, 0x9e, 0x30, 0x0b, 0xbe, 
  0xf6, 0x6e, 0xf7, 0xbc, 0x98, 0xc6, 0x8e, 0x3d, 0x1f, 0x7b, 0x10, 0xbe, 
  0x28, 0xfe, 0x2a, 0x3d, 0xdf, 0x45, 0x86, 0xbd, 0xc9, 0xff, 0x5a, 0x3d, 
  0x9b, 0x3c, 0x6c, 0xbe, 0x96, 0x78, 0x34, 0xbb, 0x01, 0xa5, 0xd2, 0xbc, 
  0x4b, 0xeb, 0xe0, 0xbd, 0x55, 0x7b, 0x53, 0x3d, 0x8d, 0xec, 0xb3, 0x3d, 
  0x0f, 0x9b, 0xa8, 0xbc, 0xa5, 0xc7, 0x56, 0x3c, 0x17, 0xd6, 0x43, 0x3d, 
  0xb0, 0x47, 0x69, 0x3d, 0x3d, 0x92, 0x5d, 0x3c, 0xf5, 0xbc, 0xcf, 0xbd, 
  0x76, 0xad, 0x2d, 0xbe, 0xaf, 0x83, 0x52, 0x3e, 0xaa, 0x58, 0x1a, 0xbd, 
  0xe0, 0x61, 0x1f, 0xbe, 0x4f, 0x1a, 0x00, 0xbc, 0xb6, 0x96, 0x12, 0x3e, 
  0x87, 0x94, 0xb7, 0xbd, 0x70, 0xb0, 0xae, 0xbd, 0xcc, 0x2b, 0xf5, 0x3c, 
  0x88, 0x6a, 0x40, 0xbd, 0xd5, 0x94, 0x83, 0xbd, 0xad, 0x67, 0xba, 0x3d, 
  0xad, 0x36, 0x3f, 0xbd, 0x76, 0xa7, 0x5b, 0xbd, 0xdc, 0x79, 0x32, 0x3d, 
  0xe2, 0xbb, 0x95, 0x3e, 0x28, 0xdb, 0xb2, 0xbd, 0x81, 0x0c, 0xe4, 0xbd, 
  0x60, 0x46, 0xfa, 0xba, 0x00, 0xc0, 0x93, 0x3d, 0xee, 0xe9, 0xaa, 0xbd, 
  0xfa, 0xd7, 0x53, 0xbc, 0x82, 0xa5, 0x8b, 0x3c, 0xdc, 0x5d, 0x85, 0xbd, 
  0xbe, 0x0c, 0x6c, 0xbd, 0xbb, 0xe9, 0x79, 0x3c, 0x66, 0xbb, 0x89, 0xbd, 
  0xa3, 0x60, 0xb0, 0xbd, 0x4b, 0x94, 0x15, 0x3e, 0xf1, 0x3d, 0xb8, 0xbd, 
  0xa9, 0x78, 0xce, 0xbd, 0x69, 0x27, 0x61, 0x3e, 0xa0, 0x30, 0xfb, 0xbd, 
  0xe7, 0x2b, 0x8d, 0xbc, 0x24, 0xa0, 0xdf, 0xbb, 0xcc, 0x28, 0xf4, 0x3d, 
  0xcb, 0x73, 0x0c, 0xbe, 0x85, 0xb5, 0x67, 0xba, 0x3f, 0x85, 0xb2, 0x3d, 
  0x4e, 0x07, 0xde, 0xbc, 0x53, 0xb2, 0x8d, 0x3e, 0x18, 0xad, 0x60, 0xbc, 
  0x91, 0xb8, 0x88, 0xbd, 0xe4, 0xb7, 0xc7, 0x3d, 0x97, 0x31, 0x05, 0x3e, 
  0x88, 0xd4, 0xdf, 0x3b, 0xe8, 0x44, 0xa6, 0x3d, 0x4a, 0x26, 0x15, 0x3c, 
  0x59, 0xa8, 0xcf, 0x3c, 0x57, 0xba, 0x0e, 0x3e, 0x72, 0x77, 0xe3, 0xbd, 
  0x31, 0x2a, 0x3d, 0xbe, 0x3f, 0x7c, 0x4f, 0x3e, 0xed, 0x6a, 0xb9, 0xbe, 
  0x69, 0x77, 0x49, 0xbd, 0x06, 0xd6, 0x1a, 0xbc, 0x19, 0x9b, 0x05, 0xbd, 
  0x6d, 0x32, 0x02, 0x3e, 0x18, 0xe1, 0x3e, 0x3d, 0x84, 0x15, 0x1e, 0xbe, 
  0x29, 0x5d, 0x39, 0x3e, 0x76, 0xe1, 0x7b, 0xbb, 0xf8, 0x67, 0x33, 0x3e, 
  0x5b, 0x8c, 0x95, 0x3e, 0x3b, 0xce, 0xa9, 0xbd, 0x2b, 0x55, 0x0f, 0xbe, 
  0x7b, 0x87, 0x2a, 0xbe, 0xd0, 0x4e, 0x1c, 0x3d, 0xb3, 0xb5, 0x20, 0x3d, 
  0x86, 0xe9, 0x70, 0x3d, 0x88, 0xb6, 0xcd, 0xbd, 0xae, 0x3f, 0x03, 0x3d, 
  0x21, 0xa6, 0xc9, 0xbd, 0x22, 0xb4, 0x6b, 0xbd, 0x64, 0x99, 0x09, 0x3a, 
  0xa9, 0x86, 0x32, 0xbd, 0x28, 0xcd, 0x31, 0x3e, 0x8e, 0x57, 0x74, 0xbd, 
  0xa9, 0xb2, 0x9b, 0xbe, 0x03, 0x05, 0x6d, 0x3d, 0x0a, 0x78, 0xaa, 0xbd, 
  0x0b, 0xfa, 0x9e, 0x3e, 0xaf, 0x24, 0xc1, 0x3d, 0x9b, 0x40, 0x23, 0x3a, 
  0xbc, 0xeb, 0x60, 0x3d, 0x14, 0xee, 0x66, 0x3e, 0x5a, 0x8d, 0xf4, 0xbd, 
  0xf4, 0xe6, 0x2e, 0x3e, 0xad, 0xc8, 0x37, 0x3e, 0x4f, 0xb7, 0xcc, 0x3d, 
  0x38, 0x10, 0xda, 0x3b, 0x25, 0x4f, 0x17, 0xbe, 0xe4, 0x99, 0xcb, 0x3b, 
  0x51, 0xd2, 0x7f, 0xbd, 0x31, 0x68, 0xa2, 0xbd, 0x26, 0x6e, 0x20, 0xbd, 
  0xd4, 0x4a, 0x71, 0xbd, 0x01, 0x57, 0x16, 0xbe, 0xf5, 0xce, 0x41, 0xbc, 
  0xda, 0x73, 0x9f, 0xbd, 0x02, 0xc8, 0xc3, 0x3c, 0x8e, 0x10, 0x2e, 0xbd, 
  0x2e, 0xae, 0x32, 0xbd, 0x97, 0x2a, 0xa0, 0xbd, 0x91, 0x8f, 0x85, 0xbd, 
  0x31, 0x23, 0x03, 0x3c, 0x23, 0x17, 0x02, 0x3e, 0xe8, 0xc8, 0x9f, 0x3c, 
  0xf8, 0x36, 0x2e, 0xbe, 0x33, 0x17, 0xa3, 0x3d, 0x73, 0x1b, 0xa4, 0x3d, 
  0xba, 0xc5, 0x74, 0xbd, 0x82, 0x2a, 0x16, 0xbd, 0x41, 0x6d, 0x92, 0xbd, 
  0x6c, 0x7d, 0x83, 0xbd, 0xcd, 0xcf, 0xe6, 0xbb, 0xd8, 0x06, 0xa9, 0xbd, 
  0xdc, 0xf7, 0x8a, 0xbc, 0x9f, 0x1f, 0x6f, 0xbd, 0x91, 0xac, 0xc6, 0xbc, 
  0x1b, 0xbf, 0x10, 0x3d, 0x43, 0x62, 0xa2, 0x3d, 0xeb, 0xbd, 0xf5, 0xbd, 
  0xb4, 0x44, 0xcb, 0x3d, 0x7d, 0xb4, 0x87, 0xbd, 0xbf, 0xd0, 0xd9, 0xbb, 
  0x06, 0xda, 0x6e, 0xbd, 0xee, 0x27, 0x94, 0x3d, 0xa2, 0x1f, 0x85, 0xbc, 
  0xd2, 0xc0, 0xbf, 0xbd, 0xc8, 0x01, 0xdc, 0x3d, 0x8c, 0x08, 0xe9, 0x3c, 
  0x09, 0xf2, 0x1e, 0xbc, 0x53, 0xaa, 0xef, 0x3d, 0xa9, 0x1f, 0x05, 0x3e, 
  0x88, 0x9d, 0xb6, 0xbd, 0x8f, 0xe5, 0x11, 0x3e, 0xd7, 0x32, 0xaa, 0xbd, 
  0x2c, 0x7e, 0x70, 0x3d, 0x58, 0xf0, 0x66, 0x3d, 0x70, 0xc6, 0x82, 0x3d, 
  0xb6, 0x4c, 0xcc, 0x3d, 0xde, 0x2c, 0xc1, 0x3d, 0x50, 0xfc, 0x14, 0xbd, 
  0xdc, 0x00, 0xca, 0xbd, 0xd4, 0xa6, 0x86, 0xbc, 0xaf, 0x45, 0xb3, 0x3c, 
  0x21, 0x25, 0x16, 0x3b, 0x52, 0x7b, 0xb4, 0xbc, 0x46, 0x7c, 0xf6, 0xbb, 
  0x79, 0xaf, 0x39, 0xbd, 0x9d, 0x68, 0x98, 0xbd, 0x63, 0x0a, 0x25, 0xbc, 
  0x3e, 0x03, 0xd2, 0x3a, 0xa3, 0xab, 0x4e, 0x3e, 0xf7, 0xdf, 0xd8, 0x3d, 
  0x73, 0x89, 0x59, 0xbe, 0x16, 0xd0, 0xc4, 0x3c, 0x5d, 0x37, 0x5c, 0x3d, 
  0xe4, 0xaa, 0x5b, 0xbd, 0x13, 0x52, 0xe2, 0xbd, 0xf5, 0xc1, 0x63, 0xbe, 
  0xea, 0x11, 0x21, 0xbd, 0x3d, 0x96, 0x91, 0xbd, 0x10, 0x01, 0xf6, 0xbd, 
  0x0b, 0x7a, 0xc7, 0x3c, 0x21, 0x1d, 0xe4, 0xbd, 0x71, 0xd0, 0x99, 0xbd, 
  0xfc, 0x3b, 0x8f, 0x3d, 0xb5, 0x37, 0x9e, 0x3d, 0x52, 0x3b, 0xfe, 0xbb, 
  0x87, 0x86, 0x6c, 0xbc, 0x8e, 0xab, 0x8b, 0xbd, 0x77, 0xe7, 0xe4, 0x3c, 
  0xcb, 0x28, 0x34, 0x3d, 0x16, 0x87, 0xe4, 0x3d, 0xaa, 0xc8, 0x92, 0xbd, 
  0x7b, 0xaf, 0xd4, 0xbd, 0x45, 0x01, 0x82, 0x3d, 0xf1, 0xb3, 0x87, 0x3d, 
  0xf1, 0x22, 0x07, 0xbe, 0x4f, 0xbd, 0xd9, 0x3d, 0x18, 0x7a, 0xc0, 0xbb, 
  0xdb, 0x66, 0xa3, 0xbd, 0xaf, 0x79, 0x8c, 0x3d, 0x5e, 0x32, 0x4c, 0xbd, 
  0x19, 0x10, 0xe2, 0x3d, 0x4b, 0x91, 0xcd, 0x3c, 0xcc, 0xb0, 0x05, 0x3e, 
  0xbb, 0xcb, 0xcc, 0x3d, 0x81, 0xe7, 0xc0, 0x3d, 0x7e, 0x7b, 0xc4, 0x3b, 
  0x18, 0xf7, 0x99, 0xbd, 0x33, 0xa7, 0xb1, 0xbd, 0xa1, 0x2b, 0x29, 0xbd, 
  0xb5, 0xf1, 0xce, 0xbd, 0xa6, 0x15, 0x0d, 0xbd, 0x61, 0x22, 0x2b, 0x3d, 
  0x7f, 0x45, 0x8e, 0xbd, 0x11, 0x21, 0x12, 0xbd, 0x20, 0x3e, 0x35, 0xbd, 
  0x74, 0xf4, 0x69, 0xbd, 0x77, 0x51, 0x04, 0x3e, 0xef, 0xc3, 0x24, 0x3d, 
  0x1c, 0x27, 0x2c, 0xbe, 0x9b, 0xa6, 0x05, 0x3e, 0x3b, 0xa5, 0x01, 0x3d, 
  0x69, 0x64, 0x8d, 0xbc, 0x07, 0xa7, 0x91, 0xbd, 0x43, 0x57, 0x2e, 0xbd, 
  0xfb, 0xe0, 0x89, 0xbc, 0xf5, 0xb5, 0x92, 0xbc, 0xb0, 0x39, 0x90, 0xbd, 
  0x3b, 0x69, 0x72, 0xbc, 0x70, 0xb9, 0x86, 0xbc, 0x23, 0x43, 0x95, 0xbd, 
  0xa9, 0x97, 0x19, 0xbd, 0xa8, 0x72, 0xb6, 0x3d, 0x05, 0x6b, 0xd8, 0xbd, 
  0x82, 0x80, 0x8f, 0xbc, 0x47, 0xd2, 0x04, 0x3b, 0x09, 0x31, 0x42, 0xbd, 
  0x5b, 0x70, 0xf0, 0xbd, 0xce, 0x94, 0x48, 0x3e, 0xe0, 0x9e, 0x2d, 0xbd, 
  0xc4, 0x9c, 0xc3, 0xbd, 0x6d, 0x98, 0x4f, 0x3d, 0x80, 0x40, 0x96, 0x3d, 
  0x30, 0x1f, 0xdd, 0xbd, 0x6b, 0x4b, 0x96, 0x3d, 0x8d, 0xd8, 0x41, 0xbc, 
  0xa2, 0x99, 0xb8, 0xbd, 0x5c, 0x65, 0x1a, 0x3e, 0x3f, 0x72, 0x9d, 0xbd, 
  0xe0, 0xfc, 0x24, 0x3d, 0xdf, 0xde, 0xfe, 0x3c, 0xbd, 0xdc, 0x70, 0x3d, 
  0x53, 0x96, 0x4f, 0x3d, 0xbf, 0xa0, 0x1c, 0x3e, 0xc0, 0x5f, 0xb6, 0xbc, 
  0x08, 0x73, 0x5d, 0xbd, 0xa3, 0xee, 0xbf, 0x3d, 0x6c, 0x5d, 0x85, 0xbd, 
  0xf9, 0xf7, 0x87, 0xbd, 0x64, 0x7e, 0x71, 0xbc, 0xd6, 0x95, 0xad, 0x3d, 
  0x74, 0x64, 0xfc, 0xbd, 0x37, 0x22, 0x2f, 0xbd, 0x2b, 0xd0, 0xfd, 0xbb, 
  0x4d, 0x7d, 0xb7, 0xbd, 0xec, 0x6c, 0x85, 0x3d, 0x97, 0xde, 0xb4, 0x3c, 
  0x67, 0xb2, 0x24, 0xbd, 0xec, 0x7a, 0x52, 0x3d, 0x2f, 0x7f, 0xf6, 0xbb, 
  0x8a, 0xd1, 0xad, 0x3d, 0x89, 0x71, 0xf7, 0xbc, 0x0b, 0x33, 0xb2, 0xbd, 
  0xa3, 0x36, 0x87, 0xbc, 0xaf, 0x3d, 0x1e, 0x3d, 0x69, 0x24, 0x87, 0xbd, 
  0x03, 0xbb, 0x5d, 0xbc, 0x1a, 0xcd, 0xab, 0xbc, 0xd4, 0x30, 0x08, 0xbe, 
  0xb0, 0xd4, 0x60, 0xbd, 0xa0, 0xca, 0xd3, 0x3d, 0xbe, 0xc8, 0xb8, 0xbd, 
  0x8c, 0x6c, 0xa9, 0x3d, 0x84, 0x44, 0x1c, 0x3e, 0x6f, 0xa1, 0x9a, 0xbd, 
  0x6f, 0x98, 0x06, 0xbe, 0x11, 0x99, 0x1c, 0x3e, 0xa2, 0xd5, 0xb0, 0xbd, 
  0x9d, 0x2d, 0xcd, 0x3c, 0x21, 0x56, 0xf4, 0x3c, 0xb8, 0x46, 0x50, 0x3d, 
  0x14, 0xca, 0x56, 0xbe, 0x4f, 0x08, 0x9a, 0x3b, 0x22, 0x4b, 0x8d, 0xbb, 
  0x8e, 0x98, 0x82, 0x3c, 0xa8, 0xb9, 0xbf, 0x3d, 0xe3, 0xae, 0xa0, 0xbc, 
  0xf2, 0x71, 0xc1, 0xbc, 0x26, 0x4b, 0xf1, 0x3d, 0x4c, 0x10, 0x88, 0x3d, 
  0x70, 0xee, 0x66, 0x3d, 0x59, 0xf5, 0x90, 0x3d, 0x9f, 0x0a, 0x4e, 0xbd, 
  0xad, 0x08, 0x22, 0xbe, 0xa8, 0xf1, 0x25, 0x3e, 0x9e, 0xf4, 0xc6, 0xbd, 
  0xed, 0xb6, 0x12, 0xbe, 0x07, 0xdc, 0x47, 0xbb, 0xc7, 0x74, 0x25, 0xbd, 
  0x1a, 0xc6, 0x74, 0xbd, 0xef, 0x4a, 0x73, 0xbd, 0x9f, 0xc8, 0xc8, 0xbd, 
  0x1a, 0x0d, 0xb6, 0x3c, 0x56, 0x57, 0x90, 0x3d, 0x86, 0x1f, 0x95, 0x3d, 
  0x98, 0xa0, 0x0e, 0xbe, 0xc4, 0x6f, 0x2a, 0x3d, 0x3c, 0x97, 0xae, 0x3d, 
  0x64, 0xcf, 0x5d, 0xbd, 0xd6, 0xf3, 0xbe, 0xbd, 0x67, 0x82, 0x44, 0xbd, 
  0xb1, 0x83, 0x4d, 0xbd, 0xbf, 0x02, 0xa5, 0x3c, 0x02, 0x0d, 0xbc, 0xbd, 
  0xb4, 0x86, 0x86, 0x3c, 0xbf, 0x5e, 0x60, 0xbd, 0xed, 0x2e, 0xeb, 0xbc, 
  0xee, 0x00, 0x26, 0xbd, 0x0a, 0x1b, 0xca, 0x3d, 0xa6, 0xae, 0xe2, 0xbd, 
  0xcb, 0xb0, 0x85, 0x3d, 0x0b, 0xd0, 0xed, 0x3c, 0x33, 0xc8, 0x44, 0x3c, 
  0x67, 0xbf, 0xf6, 0xbd, 0xc2, 0x26, 0x11, 0x3e, 0x2b, 0xf8, 0xa3, 0xbb, 
  0xfe, 0xe5, 0x0f, 0xbe, 0x89, 0x53, 0x9c, 0x3d, 0x21, 0xcd, 0x89, 0x3d, 
  0x38, 0xd3, 0x38, 0xbe, 0x06, 0x2b, 0xa0, 0x3d, 0x1c, 0x0b, 0xc0, 0x3d, 
  0xec, 0x39, 0x86, 0xbd, 0x1f, 0x37, 0xac, 0x3d, 0x77, 0x60, 0x72, 0xbd, 
  0xed, 0xfb, 0xb8, 0x3d, 0x1d, 0xc4, 0xfa, 0x3c, 0xeb, 0x09, 0x8f, 0x3d, 
  0x3b, 0x71, 0x30, 0x3d, 0x61, 0xc6, 0x85, 0x3d, 0xa7, 0xbd, 0xd1, 0xbc, 
  0x44, 0xa2, 0x7c, 0xbd, 0xf7, 0xc3, 0x11, 0x3d, 0x63, 0x4d, 0xb9, 0xbd, 
  0x46, 0x2f, 0x84, 0xbd, 0x63, 0x77, 0x06, 0xbd, 0x05, 0x31, 0x1c, 0x3e, 
  0xd3, 0xc7, 0xe3, 0xbd, 0x26, 0xe3, 0xe0, 0x3c, 0x73, 0xac, 0x89, 0xbd, 
  0x50, 0x34, 0xd7, 0xbd, 0x94, 0xba, 0xdc, 0x3c, 0xbf, 0x79, 0xbd, 0x3d, 
  0x3a, 0xfd, 0x0c, 0x3c, 0xae, 0x79, 0xd1, 0xbc, 0xca, 0x6c, 0x6e, 0xbc, 
  0x23, 0xea, 0x1d, 0x3e, 0x2f, 0x04, 0x7d, 0xbd, 0x07, 0x18, 0x13, 0xbd, 
  0x93, 0xf6, 0x3b, 0xbc, 0xc2, 0xd5, 0x46, 0x3c, 0xd7, 0xe0, 0xb6, 0xbd, 
  0x8e, 0x74, 0x8f, 0xba, 0x98, 0x26, 0x62, 0xbd, 0x25, 0xe5, 0x05, 0xbe, 
  0x68, 0xc0, 0xa8, 0xbd, 0xa2, 0x28, 0x72, 0x3d, 0xb3, 0xfa, 0xd7, 0xbd, 
  0x1b, 0x97, 0x04, 0x3c, 0x98, 0xa0, 0x38, 0x3e, 0x9a, 0xeb, 0xf7, 0xbc, 
  0xd1, 0xd8, 0xa5, 0xbd, 0xe7, 0x5d, 0x8e, 0x3d, 0xc6, 0x8e, 0xd4, 0xbd, 
  0x79, 0x16, 0xde, 0xbb, 0x03, 0x69, 0x42, 0x3c, 0x69, 0xc9, 0x8a, 0x3c, 
  0xb1, 0x35, 0x43, 0xbe, 0x8f, 0x0d, 0xc6, 0x3d, 0x3f, 0x82, 0xb9, 0x3c, 
  0xf6, 0xd1, 0x4e, 0xbd, 0x70, 0xd1, 0x23, 0x3e, 0x74, 0xdb, 0x60, 0xb9, 
  0x4c, 0x1f, 0xe3, 0x3c, 0x85, 0x27, 0x0b, 0x3e, 0x09, 0x34, 0x79, 0xbb, 
  0xa3, 0x1e, 0xe9, 0x3b, 0xd4, 0x30, 0xbf, 0x3d, 0x4e, 0xab, 0x72, 0xbd, 
  0x52, 0xf6, 0xea, 0xbd, 0x81, 0x21, 0x0d, 0x3e, 0xe8, 0x50, 0x51, 0xbd, 
  0x2f, 0x4c, 0xb7, 0xbd, 0xff, 0x3a, 0xdc, 0x3c, 0x88, 0x2f, 0x89, 0xbd, 
  0xc2, 0x54, 0x26, 0xbd, 0xc3, 0x31, 0x33, 0xbd, 0xf0, 0xb1, 0x37, 0xbd, 
  0x23, 0x7d, 0x36, 0xbd, 0x51, 0x93, 0xb4, 0x3d, 0xdc, 0xf9, 0x8c, 0x3d, 
  0xf5, 0x11, 0x1c, 0xbe, 0x35, 0x30, 0x2c, 0xbb, 0x33, 0x42, 0x81, 0x3d, 
  0xd2, 0x84, 0x90, 0xbd, 0x53, 0x4f, 0x0c, 0xbd, 0x1c, 0xde, 0x14, 0xbe, 
  0x1b, 0x41, 0x8a, 0xbd, 0xe1, 0x90, 0x25, 0xbd, 0x74, 0x71, 0x35, 0xbd, 
  0x28, 0xa4, 0x1f, 0xbd, 0x3e, 0x25, 0x2b, 0xbd, 0x1f, 0xa3, 0x15, 0xbd, 
  0xfe, 0x39, 0x18, 0xbc, 0x65, 0x48, 0xe0, 0x3d, 0xe8, 0xb8, 0x05, 0xbd, 
  0x10, 0x83, 0xc4, 0x3d, 0xb6, 0x8f, 0x6a, 0xbd, 0xe6, 0x8a, 0x2f, 0xbb, 
  0x00, 0x18, 0x22, 0x3a, 0x4e, 0x07, 0xa0, 0x3d, 0xa7, 0xf1, 0xad, 0xbd, 
  0x5d, 0xce, 0xa9, 0xbd, 0x3d, 0x33, 0x06, 0x3e, 0x45, 0xa4, 0x15, 0xbd, 
  0x4c, 0x95, 0xda, 0xbd, 0x5d, 0xb7, 0x49, 0x3e, 0xe8, 0x61, 0xbd, 0x3d, 
  0x88, 0xb1, 0x94, 0xbd, 0x2e, 0x4c, 0x1d, 0x3e, 0x07, 0x08, 0x7f, 0xbd, 
  0xe1, 0xde, 0x01, 0x3e, 0xe9, 0x7b, 0x8f, 0x3d, 0xf9, 0xe4, 0xc5, 0xba, 
  0xc7, 0x47, 0x98, 0x3d, 0x9b, 0x1f, 0x09, 0x3e, 0x9b, 0x50, 0x71, 0xbd, 
  0x62, 0x68, 0xcf, 0x3c, 0xe6, 0x9f, 0xcf, 0x3b, 0x92, 0x77, 0x19, 0xbd, 
  0xf1, 0xd8, 0x09, 0xbe, 0xc2, 0xab, 0x74, 0x3d, 0x50, 0xfb, 0x11, 0xbe, 
  0xa4, 0xde, 0xcf, 0xbb, 0x98, 0x73, 0x25, 0x3e, 0x80, 0x77, 0x3e, 0xbc, 
  0xa5, 0xb2, 0xb8, 0x3d, 0x31, 0x04, 0x83, 0xbd, 0xf5, 0xc7, 0xe8, 0xbc, 
  0xfb, 0x65, 0x45, 0x3c, 0x7f, 0xe6, 0x9c, 0x38, 0x37, 0x15, 0x95, 0xbd, 
  0x46, 0xf6, 0x6d, 0xbd, 0x9c, 0xd5, 0xee, 0xbd, 0xc7, 0x1d, 0xf5, 0xbc, 
  0x8b, 0xd3, 0x1e, 0xbe, 0x99, 0xd6, 0x98, 0x3e, 0x2e, 0xc0, 0xde, 0xbd, 
  0x80, 0x24, 0xad, 0x3e, 0xe8, 0xd7, 0x3e, 0x3d, 0x02, 0x9c, 0x11, 0xbe, 
  0x86, 0xb7, 0xb2, 0x3d, 0x1f, 0xed, 0xb5, 0xbd, 0xc2, 0x0c, 0xcd, 0x3c, 
  0x51, 0x20, 0x19, 0xbe, 0x54, 0xc3, 0x27, 0xbc, 0xf6, 0xc8, 0x06, 0x3e, 
  0x73, 0x19, 0x4f, 0x3e, 0x3a, 0x33, 0xb0, 0xbd, 0x32, 0x7f, 0x17, 0xbe, 
  0x26, 0x55, 0x6f, 0x3e, 0x74, 0x1f, 0x91, 0x3c, 0x0c, 0xd3, 0x54, 0x3d, 
  0xde, 0x6e, 0x90, 0x3b, 0xd1, 0xee, 0x17, 0x3e, 0x9e, 0xa4, 0x01, 0x3d, 
  0x16, 0x99, 0x78, 0xbe, 0x3e, 0x9f, 0xc7, 0xbc, 0x69, 0xcf, 0x18, 0x3d, 
  0xa7, 0x2b, 0xeb, 0x3d, 0x95, 0xe7, 0x3e, 0x3d, 0xdb, 0x25, 0x66, 0x3e, 
  0xc6, 0x7e, 0x2c, 0x3d, 0xfe, 0xeb, 0xeb, 0xbc, 0xd4, 0x09, 0x06, 0xb9, 
  0xd6, 0x39, 0x20, 0xbe, 0x20, 0x02, 0x9e, 0x3d, 0xf0, 0xd0, 0xb6, 0x3d, 
  0x0d, 0xbc, 0x0e, 0x3e, 0x15, 0xaa, 0x3c, 0xbd, 0x56, 0x39, 0x02, 0x3e, 
  0xb7, 0x09, 0x4c, 0xbe, 0xc8, 0xea, 0x5e, 0xbe, 0xa2, 0xc6, 0x70, 0xbe, 
  0x5d, 0x25, 0x3b, 0xbd, 0x48, 0xe2, 0xe7, 0x3c, 0x58, 0x7b, 0xe1, 0x3b, 
  0xcc, 0xe6, 0xac, 0x3e, 0xf0, 0x4c, 0xfb, 0x3d, 0xa7, 0x5f, 0x8d, 0x3e, 
  0x1a, 0xf1, 0xb1, 0x3c, 0x55, 0xb4, 0x8a, 0x3d, 0xba, 0xe0, 0xeb, 0x3e, 
  0x70, 0x76, 0x86, 0xbd, 0x41, 0xf8, 0x9a, 0x3e, 0x27, 0xc0, 0x47, 0x3c, 
  0x09, 0x39, 0x67, 0x3d, 0x85, 0x8f, 0xf3, 0x3d, 0xe0, 0x52, 0x09, 0x3e, 
  0x21, 0xfb, 0x18, 0xbe, 0x36, 0xf0, 0x2e, 0xbd, 0xc6, 0x12, 0x97, 0x3e, 
  0xb5, 0xc1, 0x2f, 0x3e, 0x32, 0x85, 0xbb, 0xbd, 0x41, 0x8c, 0x86, 0x3d, 
  0xc4, 0x5d, 0x18, 0x3e, 0x4c, 0xb7, 0x1c, 0x3e, 0xca, 0x28, 0x51, 0xbd, 
  0x45, 0x13, 0x90, 0x3d, 0x45, 0x3c, 0x11, 0xbd, 0x64, 0xc6, 0x03, 0xbe, 
  0x70, 0xe1, 0x52, 0x3e, 0xb6, 0xee, 0xff, 0x3d, 0xe6, 0xfe, 0x4d, 0xbc, 
  0x54, 0x27, 0x38, 0x3e, 0x6d, 0x8b, 0xf1, 0xbb, 0x8a, 0x54, 0x71, 0xba, 
  0x36, 0x79, 0x02, 0x3d, 0x02, 0xd0, 0x15, 0xbe, 0x80, 0xd3, 0xd5, 0x3d, 
  0x36, 0xf9, 0x87, 0xbd, 0xcb, 0xe3, 0x07, 0xbd, 0xaf, 0xdd, 0x26, 0x3d, 
  0x23, 0x54, 0x22, 0x3c, 0x44, 0x98, 0x31, 0xbe, 0x4a, 0x37, 0x8c, 0x3d, 
  0x60, 0x62, 0xb8, 0x3e, 0xe9, 0xa0, 0x99, 0xbe, 0xd1, 0x63, 0x95, 0x3e, 
  0x25, 0xf7, 0xd0, 0xbd, 0x03, 0xe9, 0x7e, 0xbe, 0xba, 0xe0, 0x53, 0x3e, 
  0x50, 0x22, 0x1a, 0x3e, 0x28, 0x80, 0x20, 0xbe, 0x73, 0x82, 0x78, 0x3d, 
  0x7b, 0x1a, 0x96, 0xbd, 0x0c, 0x38, 0x04, 0x3d, 0xa7, 0x5f, 0xac, 0x3e, 
  0x7d, 0xd0, 0x91, 0xbd, 0xe4, 0x73, 0x67, 0x3c, 0x71, 0x3f, 0xfb, 0xbd, 
  0x0e, 0x51, 0x21, 0x3d, 0xe4, 0x43, 0x8a, 0x3d, 0xbf, 0x67, 0x9a, 0xbc, 
  0x1d, 0x51, 0xa7, 0x3d, 0x06, 0x61, 0x67, 0x3e, 0x47, 0xc7, 0xed, 0x3c, 
  0x2f, 0x9d, 0x8c, 0x3d, 0x77, 0xd7, 0x71, 0x3c, 0xa5, 0x15, 0x72, 0xbd, 
  0x35, 0x18, 0xa3, 0x3d, 0xa5, 0x9a, 0x29, 0xbc, 0x09, 0xf2, 0xf9, 0x3d, 
  0x4c, 0xbb, 0x80, 0x3d, 0xdc, 0x1b, 0x8b, 0xbd, 0xb2, 0x25, 0x9c, 0xbc, 
  0x94, 0x85, 0xff, 0x3d, 0x89, 0xf5, 0xf8, 0xbd, 0x66, 0x95, 0x27, 0xbd, 
  0x87, 0x5b, 0xfc, 0x39, 0xa8, 0x91, 0x11, 0x3e, 0x55, 0x6b, 0x10, 0xbe, 
  0x45, 0x3e, 0xe5, 0xbc, 0xc3, 0x0f, 0x01, 0x3e, 0x60, 0x35, 0x46, 0x3e, 
  0x0d, 0xf4, 0x18, 0xbe, 0x79, 0x6f, 0x52, 0xbd, 0x1e, 0x3d, 0xd8, 0x3b, 
  0xe0, 0x71, 0x0d, 0xbe, 0xb0, 0xdf, 0x67, 0xbd, 0xe0, 0x9f, 0x74, 0xbe, 
  0x96, 0x65, 0x0c, 0x3e, 0xf9, 0xab, 0x18, 0xbd, 0x94, 0xca, 0x50, 0xbd, 
  0xe7, 0x89, 0x62, 0x3c, 0x7c, 0x32, 0x06, 0xbd, 0x7d, 0xf2, 0x07, 0x3d, 
  0x5b, 0x27, 0x75, 0xbd, 0x7c, 0x7e, 0x04, 0xbe, 0xe5, 0x4c, 0x22, 0x3c, 
  0x48, 0x02, 0x9b, 0xbd, 0x4f, 0x05, 0x30, 0x3e, 0x2d, 0x23, 0xbc, 0x3d, 
  0x4d, 0x94, 0x9c, 0xbe, 0xc0, 0x66, 0x61, 0x3d, 0x72, 0x0a, 0x5b, 0x3d, 
  0x56, 0x23, 0x88, 0xbc, 0xf5, 0xdd, 0x46, 0x39, 0x70, 0x86, 0x79, 0xbe, 
  0xc3, 0x65, 0xaf, 0xbd, 0x99, 0x96, 0x1d, 0x3d, 0x90, 0x93, 0x1d, 0xbe, 
  0xeb, 0xcc, 0x8b, 0x3d, 0xab, 0x90, 0x98, 0xbd, 0x74, 0x4a, 0x85, 0xbd, 
  0xe8, 0x44, 0x34, 0x3e, 0xa2, 0x59, 0x9c, 0x3d, 0x04, 0xfb, 0xf5, 0x3a, 
  0x94, 0xac, 0xc3, 0xbb, 0xa0, 0xbf, 0xb8, 0xbb, 0x3d, 0xae, 0xc1, 0xbc, 
  0xfc, 0xb3, 0x10, 0x3e, 0x05, 0xcf, 0x74, 0x3d, 0x00, 0x30, 0x10, 0xbe, 
  0x87, 0x4c, 0x99, 0xbd, 0xc1, 0xae, 0xa7, 0x3c, 0x1f, 0xf7, 0x41, 0x3b, 
  0x20, 0xb8, 0x64, 0xbe, 0x2c, 0x1f, 0xd1, 0x3d, 0x6b, 0xab, 0xb3, 0x3d, 
  0x7c, 0x7d, 0x97, 0xbd, 0x34, 0x69, 0xfc, 0x3d, 0x17, 0x3c, 0xb4, 0xbd, 
  0xe6, 0xe8, 0xff, 0x3d, 0x8b, 0x55, 0xe9, 0x3d, 0x51, 0x00, 0x1c, 0x3d, 
  0xbf, 0x42, 0xc4, 0x3c, 0xc1, 0xb7, 0x47, 0xbc, 0xc3, 0xf5, 0x78, 0x3d, 
  0x27, 0xed, 0x9a, 0xbd, 0xb5, 0x50, 0x42, 0xbd, 0x1a, 0xef, 0xff, 0xff, 
  0x04, 0x00, 0x00, 0x00, 0x40, 0x00, 0x00, 0x00, 0x98, 0x3c, 0xe1, 0x3d, 
  0x43, 0xa5, 0xcb, 0x3d, 0x0d, 0xa4, 0xd1, 0x3e, 0x72, 0xe2, 0x44, 0x3d, 
  0x52, 0x39, 0x67, 0x3d, 0x50, 0xb2, 0xcf, 0x3d, 0x32, 0x8b, 0x62, 0x3e, 
  0x0e, 0xde, 0x5a, 0x3e, 0x69, 0xfd, 0x49, 0x3e, 0x16, 0x64, 0x71, 0x3e, 
  0x81, 0xc8, 0x60, 0x3e, 0x7d, 0x7f, 0x01, 0x3e, 0x41, 0x50, 0x4d, 0xbe, 
  0xcb, 0x33, 0x74, 0xbf, 0x9b, 0xc7, 0x49, 0xbe, 0x64, 0x42, 0x8c, 0x3e, 
  0x66, 0xef, 0xff, 0xff, 0x04, 0x00, 0x00, 0x00, 0x80, 0x04, 0x00, 0x00, 
  0xc4, 0x2a, 0xa4, 0xbd, 0x7f, 0x24, 0xfe, 0xbd, 0x3c, 0x71, 0xf0, 0xbd, 
  0xf3, 0x54, 0x9d, 0x3c, 0x96, 0xc2, 0x78, 0x3e, 0x82, 0xdb, 0x95, 0xbc, 
  0x65, 0xcc, 0x1c, 0xbe, 0xfc, 0x39, 0x09, 0xbe, 0x7a, 0x6d, 0x6d, 0xbe, 
  0x3d, 0xca, 0xe2, 0xbd, 0x84, 0xa1, 0x50, 0xbd, 0x11, 0xbc, 0xd2, 0x3d, 
  0x0e, 0x24, 0xda, 0xbd, 0xe3, 0x6f, 0x1a, 0xbd, 0xc4, 0x09, 0x49, 0x3e, 
  0xe7, 0xd4, 0x84, 0xbe, 0x1a, 0x5b, 0x6c, 0x3e, 0x54, 0x64, 0x3a, 0x3e, 
  0x81, 0xea, 0xcf, 0xbe, 0x5e, 0x15, 0x12, 0x3d, 0x4e, 0x29, 0x1e, 0x3e, 
  0x9c, 0xb2, 0x3c, 0x3e, 0xc7, 0x33, 0xcb, 0xbd, 0xa1, 0x2f, 0x02, 0x3e, 
  0xec, 0x37, 0x77, 0x3e, 0x99, 0x42, 0x99, 0x3e, 0xe2, 0x14, 0x92, 0xbe, 
  0xe2, 0x7a, 0x90, 0xbe, 0xe4, 0x73, 0x37, 0xbd, 0xbd, 0x5a, 0x48, 0x3e, 
  0xf9, 0x3a, 0x4d, 0x3e, 0x6b, 0x2d, 0x6c, 0x3e, 0x4a, 0x28, 0xaf, 0x3d, 
  0x87, 0x1c, 0x6d, 0x3e, 0x24, 0x97, 0x4c, 0xbd, 0x08, 0x9d, 0x37, 0x3e, 
  0x3f, 0xa4, 0x9c, 0x3d, 0xba, 0x50, 0x8c, 0x3e, 0xd3, 0x22, 0x4b, 0xbe, 
  0x6e, 0x26, 0xc6, 0xbd, 0xb0, 0x46, 0xaf, 0x3d, 0xa8, 0x3a, 0x43, 0x3e, 
  0x50, 0xef, 0x83, 0x3d, 0x84, 0x5f, 0x58, 0x3e, 0x7a, 0xeb, 0x32, 0xbd, 
  0xf8, 0x9d, 0xc3, 0xbd, 0xaf, 0x50, 0x37, 0xbe, 0xfb, 0xad, 0x61, 0x3d, 
  0x36, 0x16, 0x94, 0xbc, 0x3a, 0x47, 0x82, 0x3e, 0x01, 0xbb, 0x12, 0x3d, 
  0x20, 0x69, 0x38, 0xbe, 0xc6, 0xc4, 0x5c, 0xbe, 0x60, 0x4b, 0x3c, 0xbe, 
  0x77, 0xc4, 0xea, 0x3d, 0x59, 0x70, 0x57, 0x3d, 0xf6, 0xbc, 0xf6, 0x3d, 
  0x3e, 0x1e, 0x81, 0xbd, 0x3d, 0x88, 0x51, 0x3d, 0xb7, 0x50, 0x06, 0x3f, 
  0xd5, 0xe8, 0x60, 0x3d, 0x92, 0x11, 0x85, 0x3e, 0x28, 0xd5, 0xd5, 0x3d, 
  0x4d, 0x04, 0xfc, 0xbc, 0x65, 0x83, 0xac, 0x3e, 0xaa, 0xab, 0xbf, 0xbc, 
  0xd5, 0x1d, 0xee, 0x3d, 0xbe, 0x98, 0x5b, 0x3e, 0xbb, 0xd9, 0xee, 0xbd, 
  0xa0, 0x54, 0x02, 0x3e, 0x41, 0xa0, 0xa9, 0x3e, 0x89, 0x2d, 0x29, 0xbe, 
  0xf3, 0x06, 0x3d, 0x3d, 0x3e, 0x41, 0xbb, 0xbd, 0x53, 0x2a, 0xa9, 0x3d, 
  0xbc, 0x29, 0x8c, 0xbe, 0x52, 0xd5, 0x75, 0x3e, 0x3f, 0xc7, 0x87, 0x3e, 
  0x38, 0xa9, 0x5f, 0x3d, 0x16, 0x34, 0x27, 0xbe, 0xc1, 0xf0, 0xee, 0x3c, 
  0x4d, 0x99, 0xdf, 0xbd, 0x13, 0x0c, 0x3e, 0x3e, 0x1a, 0x65, 0xcf, 0xbc, 
  0x58, 0xf6, 0x88, 0x3e, 0x68, 0x09, 0x40, 0xbe, 0xd1, 0x78, 0x82, 0x3c, 
  0x81, 0x5c, 0x73, 0x3e, 0xc6, 0x0a, 0x42, 0xbe, 0xdf, 0x24, 0x05, 0x3e, 
  0x70, 0x42, 0x78, 0x3e, 0x74, 0x29, 0x58, 0xb9, 0xa2, 0x8e, 0x5e, 0xbe, 
  0xea, 0x8c, 0xa6, 0x3e, 0xa3, 0xd6, 0x89, 0xbe, 0xe9, 0xd2, 0x88, 0xbd, 
  0x21, 0x2e, 0x36, 0x3d, 0xeb, 0xb1, 0xf6, 0x3c, 0x27, 0xc5, 0x87, 0x3e, 
  0x88, 0x86, 0x0a, 0x3e, 0x3f, 0x70, 0xad, 0xbd, 0x2c, 0x59, 0x4e, 0x3e, 
  0xbc, 0x5e, 0x94, 0x3d, 0xaa, 0x6e, 0xc5, 0xbd, 0x9a, 0x37, 0x86, 0xbe, 
  0x3b, 0xf9, 0x03, 0x3e, 0x19, 0xfd, 0xef, 0x3c, 0x22, 0xa2, 0xb0, 0x3e, 
  0x88, 0x41, 0x70, 0xbe, 0x14, 0x6d, 0x1e, 0x3e, 0x67, 0x08, 0x4c, 0xbe, 
  0x9d, 0x68, 0x95, 0xbe, 0x41, 0x0f, 0x11, 0xbe, 0x37, 0x9a, 0xc5, 0xbb, 
  0xfb, 0x76, 0x99, 0x3d, 0xbc, 0x67, 0x67, 0xbe, 0x1b, 0x51, 0x67, 0xbc, 
  0x24, 0xbc, 0xc3, 0x3d, 0xdc, 0x0a, 0xc2, 0x3c, 0x6d, 0xfd, 0x95, 0x3e, 
  0xb6, 0x40, 0xbb, 0x3a, 0x24, 0xdd, 0x1e, 0x3e, 0x4e, 0xb6, 0x3f, 0xbe, 
  0xba, 0xe0, 0x8f, 0x3e, 0xca, 0x9f, 0xb9, 0xbd, 0x0d, 0x5f, 0x98, 0xbd, 
  0x9f, 0x6d, 0x07, 0x3e, 0xc5, 0xc9, 0x92, 0x3e, 0x3e, 0x5f, 0x40, 0xbe, 
  0x54, 0x93, 0x5b, 0xbe, 0xac, 0x83, 0x33, 0x3e, 0x69, 0x61, 0xf2, 0xbd, 
  0x14, 0x11, 0x19, 0xbe, 0xb3, 0x2a, 0x00, 0xbe, 0x09, 0x2b, 0x95, 0x3e, 
  0xa1, 0xd1, 0x6b, 0x3d, 0xb8, 0xeb, 0xe3, 0xbd, 0xc8, 0xef, 0xae, 0xbc, 
  0x9e, 0x88, 0x94, 0xbd, 0x96, 0x33, 0x3b, 0x3e, 0x8c, 0xdd, 0x96, 0x3d, 
  0x50, 0xcd, 0xcc, 0x3c, 0x01, 0xb1, 0x7e, 0xbe, 0x5b, 0x79, 0x98, 0xbe, 
  0x36, 0xc8, 0x7c, 0x3d, 0x3b, 0x3f, 0x03, 0xbe, 0x3d, 0x79, 0x9f, 0x3c, 
  0x09, 0x57, 0xba, 0x3e, 0x1a, 0xe3, 0xcb, 0xbd, 0xc6, 0xd0, 0x30, 0xbe, 
  0x47, 0x41, 0x6a, 0xbd, 0x1f, 0xf5, 0x2e, 0xbe, 0xdf, 0xcb, 0x57, 0xbe, 
  0x34, 0x4f, 0x96, 0xbd, 0x86, 0x13, 0x88, 0x3e, 0xa5, 0x68, 0x0b, 0x3e, 
  0xbf, 0x26, 0x06, 0x3e, 0x20, 0xcc, 0x58, 0xbc, 0x9a, 0xa7, 0x35, 0xbe, 
  0xfb, 0xd3, 0xa6, 0xbd, 0xe5, 0xa1, 0x32, 0xbd, 0xab, 0x0b, 0x09, 0xbc, 
  0xaa, 0x83, 0xa8, 0x3e, 0x79, 0xbb, 0xdd, 0xbd, 0xf0, 0x95, 0x1f, 0xbd, 
  0x95, 0x1b, 0x8d, 0x3e, 0xe5, 0x9a, 0x7a, 0x3d, 0xec, 0x27, 0x1f, 0x3d, 
  0x62, 0xc2, 0x0b, 0xbe, 0x8e, 0x66, 0x5e, 0xbe, 0xb1, 0x46, 0x0c, 0xbe, 
  0x28, 0xe5, 0x12, 0x3e, 0x45, 0x24, 0x88, 0xbd, 0x5c, 0xb8, 0x5b, 0x3e, 
  0x72, 0xdc, 0xe4, 0xbc, 0x01, 0x09, 0x15, 0x3e, 0x7d, 0x14, 0x89, 0xbd, 
  0x4e, 0xd7, 0x63, 0x3e, 0xe9, 0x21, 0x0e, 0xbd, 0x09, 0xbd, 0x33, 0x3d, 
  0xf1, 0x3a, 0x10, 0xbc, 0x67, 0x4d, 0x1b, 0x3e, 0x39, 0xae, 0x0c, 0x3e, 
  0x29, 0x00, 0x28, 0xbe, 0x4f, 0x02, 0x21, 0x3c, 0x78, 0x83, 0x1c, 0xbe, 
  0x30, 0x4e, 0x74, 0xbe, 0xf6, 0xa2, 0x6a, 0xbd, 0xde, 0x01, 0x69, 0x3e, 
  0x2f, 0x24, 0x0a, 0x3e, 0x7a, 0x9d, 0x8e, 0x39, 0x21, 0xa6, 0xb9, 0xbe, 
  0xbe, 0x69, 0x5f, 0x3d, 0x89, 0x26, 0x5c, 0x3d, 0x1d, 0xca, 0x8c, 0x3e, 
  0x2d, 0x11, 0xf0, 0x3d, 0x76, 0x64, 0x17, 0xbe, 0x86, 0x30, 0x96, 0xbd, 
  0x2e, 0x4e, 0xa0, 0xbe, 0x69, 0x03, 0xd5, 0x3e, 0x42, 0x56, 0xe0, 0x3d, 
  0xf5, 0x1f, 0x1b, 0x3e, 0xac, 0x52, 0x7e, 0x3e, 0x81, 0x92, 0x93, 0x3d, 
  0xef, 0x60, 0xf2, 0x3d, 0xca, 0x30, 0x50, 0xbe, 0x2b, 0x0e, 0xce, 0xbd, 
  0xf0, 0x97, 0x5a, 0x3e, 0x09, 0x3d, 0x2e, 0xbc, 0x8a, 0x64, 0x8f, 0x3e, 
  0x4c, 0x38, 0x99, 0x3e, 0xc0, 0x09, 0x31, 0x3e, 0x3a, 0x9f, 0xc8, 0x3c, 
  0x6a, 0xfb, 0xae, 0xbd, 0x33, 0xc9, 0xb1, 0x3e, 0xfe, 0x7c, 0x1e, 0xbe, 
  0xdf, 0x88, 0x99, 0x3d, 0x35, 0x34, 0x6b, 0x3d, 0x5c, 0x96, 0xee, 0x3d, 
  0x6c, 0x55, 0x39, 0xbe, 0x5a, 0xf8, 0x47, 0x3e, 0x4b, 0xe9, 0xae, 0xbd, 
  0x86, 0xc8, 0x01, 0xbe, 0x31, 0xad, 0xa7, 0x3b, 0x0c, 0x65, 0x66, 0x3e, 
  0xb7, 0x6c, 0x05, 0xbe, 0x7e, 0x4b, 0x84, 0x3e, 0x9f, 0x22, 0xc8, 0xbc, 
  0x2b, 0xdf, 0x9c, 0x3e, 0x6e, 0x45, 0x71, 0xbe, 0x13, 0x6b, 0x39, 0xbe, 
  0xa5, 0x8a, 0x37, 0x3e, 0x90, 0x3c, 0xb9, 0x3d, 0x9e, 0x66, 0xb2, 0x3e, 
  0x1f, 0x85, 0x21, 0xbe, 0xe4, 0x5b, 0x76, 0x3d, 0x86, 0xf2, 0x74, 0x3d, 
  0x15, 0xc7, 0xe4, 0xbd, 0x15, 0xad, 0xcc, 0xbd, 0xa7, 0xc8, 0x6d, 0xbe, 
  0x8e, 0x54, 0x06, 0x3e, 0x3a, 0x64, 0x35, 0xbe, 0xc0, 0x05, 0xaa, 0x3e, 
  0xbf, 0x67, 0xf4, 0x3d, 0x5f, 0xb9, 0x16, 0xbd, 0x51, 0x1c, 0x85, 0xbe, 
  0x8f, 0xdd, 0xa9, 0xbe, 0xd0, 0xa2, 0xd1, 0x3d, 0xa9, 0xfe, 0x0c, 0x3e, 
  0xda, 0xdd, 0xe9, 0xbd, 0xa4, 0xc3, 0x24, 0xbc, 0xa7, 0x6a, 0xb1, 0xbd, 
  0xd7, 0xf1, 0x79, 0x3d, 0xef, 0x00, 0x18, 0x3e, 0x86, 0x0a, 0x2a, 0xbd, 
  0xfb, 0xb5, 0x3d, 0xbe, 0x47, 0x6c, 0x3e, 0xbe, 0xe2, 0x00, 0x54, 0xbe, 
  0x00, 0x91, 0xe8, 0xbd, 0x18, 0x34, 0x95, 0xbd, 0x4b, 0xa9, 0xc7, 0x3e, 
  0x28, 0xb7, 0x20, 0x3e, 0x56, 0x8c, 0xbb, 0xbd, 0xa1, 0x22, 0xea, 0x3b, 
  0xa3, 0x3f, 0xba, 0x3c, 0xce, 0xea, 0xb1, 0x3e, 0xa8, 0x68, 0xc6, 0xbc, 
  0x0c, 0x5b, 0xda, 0x3d, 0x93, 0x35, 0x92, 0x3d, 0x86, 0x24, 0x89, 0xbe, 
  0xa7, 0x66, 0xf3, 0x3d, 0x4c, 0xb6, 0x4d, 0xbe, 0xcb, 0xb5, 0x22, 0xbe, 
  0x2d, 0x16, 0x2e, 0x3e, 0xae, 0xc5, 0x32, 0x3c, 0xa6, 0x49, 0xec, 0x3a, 
  0x45, 0xa0, 0xd6, 0x3d, 0x72, 0xf2, 0x20, 0xbe, 0xe2, 0x51, 0x2e, 0x3e, 
  0x9b, 0xae, 0x4d, 0xbc, 0xe2, 0x6c, 0x16, 0xbe, 0x42, 0x72, 0xfd, 0x3d, 
  0x65, 0x01, 0xaa, 0x3e, 0x6c, 0xbd, 0xad, 0xbe, 0xb9, 0xa8, 0x5d, 0x3e, 
  0xcd, 0x64, 0x49, 0x3c, 0x8d, 0x58, 0xab, 0x3b, 0xb8, 0xf6, 0x9b, 0xbd, 
  0xf2, 0xf3, 0xff, 0xff, 0x04, 0x00, 0x00, 0x00, 0x00, 0x0c, 0x00, 0x00, 
  0x34, 0x85, 0xfc, 0x3c, 0xb4, 0xdf, 0x34, 0x3e, 0x85, 0x14, 0x88, 0x3e, 
  0xb7, 0x16, 0xd1, 0x3b, 0x21, 0xe9, 0xf8, 0x3d, 0x44, 0xfd, 0x96, 0xb9, 
  0xe2, 0xfa, 0x2c, 0xbe, 0xc0, 0xa6, 0xdd, 0xbd, 0x1c, 0x48, 0x7a, 0x3d, 
  0x25, 0xee, 0x13, 0xbe, 0x3a, 0xbd, 0x0c, 0xbd, 0xe8, 0xd9, 0xe3, 0x3d, 
  0xd3, 0x38, 0x6e, 0xbe, 0xd2, 0x2f, 0x6c, 0xbe, 0x45, 0x59, 0x50, 0xbe, 
  0xca, 0xe1, 0xa5, 0xbd, 0x48, 0xf7, 0x19, 0x3e, 0x8c, 0x15, 0xd3, 0xbd, 
  0xee, 0xfc, 0x02, 0xbd, 0xd6, 0x85, 0xdc, 0xbd, 0x59, 0x70, 0x82, 0xbd, 
  0xdd, 0x2e, 0xe8, 0x3d, 0x96, 0xe2, 0x0d, 0xbe, 0x34, 0x53, 0xb8, 0x3d, 
  0x34, 0x31, 0xd9, 0x3d, 0x31, 0x7f, 0x20, 0xbe, 0x5a, 0x59, 0x00, 0xbe, 
  0x86, 0xd6, 0x12, 0x3e, 0x4c, 0x55, 0x14, 0xbe, 0xcc, 0x1a, 0x85, 0xbd, 
  0x01, 0x2c, 0x95, 0x3e, 0xf9, 0xea, 0xf4, 0x3c, 0xbe, 0x8f, 0x5c, 0x3e, 
  0xa8, 0x15, 0x4b, 0xbd, 0x85, 0x2b, 0x2c, 0xbe, 0xda, 0x80, 0x6c, 0xbd, 
  0x00, 0x4d, 0x57, 0xbe, 0x15, 0xfa, 0xbd, 0xbd, 0x14, 0x98, 0xb3, 0x3d, 
  0x9e, 0x3b, 0x5b, 0xbe, 0xff, 0x16, 0x84, 0xbe, 0x37, 0xc0, 0x75, 0x3e, 
  0x2f, 0xbc, 0x9c, 0xbc, 0xcc, 0x83, 0x3e, 0xbe, 0xff, 0x24, 0x2a, 0x3e, 
  0xfc, 0x17, 0x57, 0x3e, 0xce, 0xc9, 0xe9, 0x3d, 0x1a, 0x26, 0xcd, 0x3d, 
  0xdd, 0x0c, 0xd7, 0x3d, 0xe2, 0x26, 0x7a, 0x3e, 0xc8, 0x95, 0x2e, 0xbd, 
  0xaf, 0x76, 0x8d, 0x3d, 0x8a, 0xe1, 0x80, 0xbe, 0xef, 0xa6, 0x5f, 0xbd, 
  0x91, 0x02, 0x23, 0xbe, 0x42, 0xcf, 0x1c, 0xbe, 0xac, 0xc0, 0xa4, 0x3a, 
  0x72, 0x64, 0x0b, 0x3d, 0xda, 0x95, 0x60, 0xbd, 0x57, 0x5b, 0x20, 0xbe, 
  0x61, 0xfe, 0x23, 0x3d, 0x9c, 0xee, 0xa9, 0x3c, 0xe4, 0xc6, 0x88, 0xbd, 
  0xdf, 0x6f, 0xc6, 0x3d, 0x58, 0xb7, 0x54, 0x3e, 0xb8, 0x54, 0xff, 0xbc, 
  0x90, 0x49, 0xe1, 0xbd, 0xa5, 0x03, 0x25, 0x3d, 0xcd, 0x25, 0x1f, 0x3e, 
  0x88, 0x01, 0xf1, 0x3c, 0x76, 0xf5, 0xeb, 0xbd, 0x05, 0x38, 0x1a, 0x3e, 
  0x23, 0xe3, 0xe0, 0x3d, 0x3a, 0x5f, 0xb3, 0xbd, 0x1c, 0xe2, 0x2d, 0x3e, 
  0xd7, 0xb9, 0x80, 0xbd, 0x9b, 0x4e, 0x1c, 0x3e, 0x71, 0xe5, 0x56, 0x3d, 
  0x10, 0xf7, 0xa5, 0xbd, 0xc4, 0xb3, 0x80, 0xbc, 0xee, 0x89, 0xf8, 0xbd, 
  0x64, 0x5b, 0x8c, 0xbd, 0x0b, 0x5e, 0x3d, 0x3e, 0x3e, 0x91, 0x10, 0xbe, 
  0x84, 0x27, 0x1e, 0xbe, 0xc5, 0xde, 0x20, 0xbe, 0xab, 0xc7, 0x89, 0xbc, 
  0x97, 0x8e, 0x90, 0x3d, 0x8f, 0xbf, 0x31, 0x3e, 0xd4, 0x09, 0x07, 0xbd, 
  0xd0, 0xe8, 0x62, 0xbe, 0xae, 0xcb, 0x28, 0x3d, 0x25, 0x39, 0x37, 0xbe, 
  0xed, 0x8d, 0x56, 0x3d, 0x07, 0xeb, 0xce, 0xbd, 0x32, 0x4f, 0x7a, 0xbe, 
  0x71, 0x47, 0x76, 0x3e, 0x35, 0x95, 0x9d, 0xbd, 0xc8, 0xd1, 0x8c, 0x3d, 
  0xfe, 0x6e, 0x32, 0xbe, 0xf9, 0x34, 0x21, 0x3c, 0x17, 0x71, 0x03, 0xbc, 
  0x5e, 0x03, 0x20, 0xbe, 0x84, 0x05, 0x98, 0xbd, 0x74, 0xed, 0x47, 0x3e, 
  0x30, 0x95, 0x17, 0x3e, 0xb6, 0x63, 0x39, 0xbe, 0xc0, 0xd0, 0x22, 0xbe, 
  0x70, 0x08, 0x4f, 0x3e, 0x71, 0x98, 0x5a, 0xbe, 0xc5, 0xe4, 0x19, 0xbe, 
  0xc5, 0x9f, 0x9b, 0x3e, 0x29, 0x51, 0x69, 0xbd, 0x12, 0x0d, 0x0b, 0x3e, 
  0x7f, 0xd8, 0x80, 0x3d, 0x3c, 0x17, 0xce, 0x3c, 0xa0, 0x4f, 0x8d, 0xbd, 
  0x5a, 0xe8, 0x61, 0xbe, 0xec, 0x6a, 0xdf, 0x3c, 0x03, 0x72, 0x3f, 0x3c, 
  0x58, 0x01, 0xd0, 0xbd, 0xda, 0xe3, 0xc7, 0x3d, 0x34, 0x26, 0x5a, 0x3e, 
  0xe3, 0xf7, 0xba, 0xbd, 0xf8, 0x62, 0x7b, 0x3e, 0xa7, 0x3b, 0xb6, 0xbd, 
  0x33, 0x5c, 0x22, 0x3e, 0x38, 0x2a, 0x4b, 0x3e, 0xb8, 0xa6, 0x02, 0xbe, 
  0xb9, 0x38, 0x5a, 0x3e, 0x50, 0x2a, 0x85, 0xbe, 0x40, 0x49, 0xcb, 0x3d, 
  0x45, 0x03, 0x5c, 0xbe, 0xab, 0x01, 0x8f, 0xbd, 0xfc, 0x3d, 0x83, 0x3d, 
  0x67, 0x86, 0x1e, 0x3e, 0x11, 0x25, 0x4c, 0x3c, 0xaf, 0xc9, 0x5a, 0xbd, 
  0xc7, 0x8b, 0x5e, 0x3d, 0xc2, 0x3c, 0xb2, 0xbd, 0x88, 0x6d, 0x87, 0xbe, 
  0x5c, 0x57, 0x26, 0x3d, 0x3c, 0x96, 0x99, 0xbc, 0x08, 0xe7, 0x10, 0x3e, 
  0x92, 0x13, 0x2b, 0xbe, 0xa0, 0xb0, 0xdc, 0x3d, 0xa4, 0x8f, 0x54, 0xbe, 
  0x4a, 0x17, 0xd8, 0x3c, 0x56, 0xb9, 0xce, 0xbd, 0xb1, 0x69, 0xf8, 0xbc, 
  0x1b, 0xda, 0x42, 0xbe, 0x95, 0x5c, 0xf9, 0x3d, 0xd1, 0x76, 0x48, 0x3e, 
  0x1a, 0xce, 0x68, 0x3e, 0xd6, 0xdc, 0xd6, 0xbc, 0xd2, 0xcc, 0x98, 0x3e, 
  0x2b, 0xad, 0x21, 0x3e, 0x4e, 0xf9, 0x27, 0x3e, 0xdb, 0x73, 0x1f, 0x3e, 
  0xe5, 0x7b, 0x13, 0xbd, 0xe0, 0x1f, 0xd9, 0x3d, 0x90, 0x3b, 0x90, 0x3d, 
  0x1e, 0x56, 0xce, 0x3d, 0x26, 0xbd, 0x1f, 0x3e, 0x64, 0x20, 0x62, 0x3d, 
  0x68, 0x42, 0x8c, 0xbd, 0xb2, 0x82, 0xa0, 0x3d, 0x8d, 0xed, 0x94, 0x3c, 
  0x70, 0x17, 0xaa, 0xbc, 0xee, 0x92, 0xdf, 0x3d, 0x8a, 0x30, 0xe8, 0xbd, 
  0x61, 0x85, 0x79, 0xbd, 0xf0, 0x5d, 0x3b, 0xbd, 0xf7, 0xf9, 0x07, 0xbe, 
  0xb3, 0x76, 0x62, 0xbd, 0x91, 0x83, 0xde, 0x3c, 0x99, 0x15, 0xb3, 0xbd, 
  0x41, 0x11, 0xeb, 0xbd, 0x6e, 0xe8, 0x81, 0x3e, 0x56, 0x98, 0x4a, 0xbe, 
  0xea, 0x0e, 0x13, 0xbd, 0x0d, 0x44, 0xd0, 0x3d, 0x6c, 0xf6, 0x2b, 0xbe, 
  0x7a, 0x6c, 0x9d, 0x3d, 0xb5, 0xeb, 0x85, 0x3e, 0xaf, 0x10, 0x91, 0x3e, 
  0x78, 0x29, 0x34, 0x3e, 0x7a, 0xc8, 0x8e, 0x3e, 0xd1, 0x85, 0x57, 0xbe, 
  0x14, 0x39, 0x6f, 0x3e, 0xba, 0x92, 0x97, 0x3d, 0x89, 0x04, 0x16, 0xbe, 
  0x4b, 0x1b, 0xd7, 0xbc, 0x5b, 0x32, 0xf3, 0xbc, 0xdd, 0xf6, 0x8d, 0xbe, 
  0x4e, 0x16, 0x7b, 0xbe, 0xaf, 0x06, 0xed, 0xbd, 0x9d, 0x48, 0x78, 0x3e, 
  0x01, 0xba, 0x6c, 0xbe, 0x8c, 0xcb, 0x03, 0x3e, 0x55, 0x2b, 0x17, 0xbe, 
  0xce, 0xb3, 0x29, 0xbd, 0xb4, 0x93, 0x79, 0x3e, 0x63, 0x49, 0x83, 0xbd, 
  0xd9, 0x5d, 0x14, 0xbe, 0xb4, 0x70, 0xbb, 0xbd, 0x92, 0x9e, 0x44, 0xbe, 
  0xb6, 0xe3, 0x7e, 0x3e, 0x05, 0x92, 0x96, 0xbd, 0x7c, 0x44, 0x90, 0x3d, 
  0xd8, 0x2c, 0x29, 0xbd, 0xcd, 0xa1, 0x8e, 0xbd, 0x70, 0x8c, 0x19, 0xbe, 
  0x62, 0xb1, 0x19, 0xbd, 0x5c, 0x2f, 0xbf, 0xbd, 0x23, 0x1e, 0xba, 0x3d, 
  0x1b, 0x3e, 0x21, 0xbe, 0x20, 0x3f, 0x62, 0xbe, 0x30, 0xb2, 0xfa, 0x3d, 
  0xe3, 0xac, 0xc2, 0x3d, 0xec, 0xbb, 0xc9, 0x3d, 0x6f, 0x2c, 0x06, 0xbd, 
  0xd4, 0x15, 0xd7, 0x3c, 0x3c, 0xfb, 0x49, 0xbe, 0x2f, 0x7d, 0x29, 0xbe, 
  0xae, 0xd7, 0xde, 0x3d, 0x4f, 0x57, 0xcb, 0xbc, 0xce, 0x85, 0x98, 0xbc, 
  0x2a, 0x66, 0xe8, 0xbb, 0x57, 0x9b, 0x0d, 0x3e, 0x3d, 0xf4, 0x99, 0xbd, 
  0x38, 0xbd, 0x06, 0x3e, 0x2d, 0x66, 0x01, 0xbe, 0xd5, 0xbc, 0xd2, 0xbd, 
  0x90, 0x7f, 0xd7, 0x3d, 0x45, 0x3e, 0x16, 0xbe, 0xd8, 0xf3, 0xe4, 0xbc, 
  0xdb, 0x1a, 0x28, 0xbe, 0x97, 0x44, 0x7c, 0xbe, 0x50, 0xbb, 0xd6, 0x3c, 
  0x1f, 0x88, 0xac, 0xbd, 0x3c, 0x00, 0x81, 0x3e, 0xba, 0x4d, 0x2c, 0xbc, 
  0x4a, 0x98, 0x46, 0xbe, 0xc6, 0x5e, 0x87, 0x3e, 0x08, 0x33, 0xb4, 0xbd, 
  0xbd, 0x1d, 0xa8, 0x3c, 0x23, 0x84, 0xe9, 0x3d, 0x96, 0x16, 0x70, 0xbe, 
  0xc2, 0x5d, 0x92, 0xbe, 0x46, 0xfd, 0xd1, 0xbd, 0xe9, 0x11, 0x87, 0x3e, 
  0x97, 0x8b, 0x81, 0x3c, 0x06, 0xb7, 0x75, 0xbe, 0xd3, 0x55, 0x0f, 0x3e, 
  0x75, 0xa1, 0xf3, 0xbd, 0x31, 0x13, 0xf1, 0xbd, 0xab, 0x42, 0x47, 0xbe, 
  0xf1, 0xe0, 0xc1, 0xbd, 0x5a, 0xe7, 0x4b, 0x3e, 0x1e, 0xa2, 0x32, 0xbe, 
  0x64, 0x70, 0x81, 0x3d, 0x3d, 0xbe, 0xe2, 0x3d, 0xb0, 0xc9, 0x4d, 0x3c, 
  0x6a, 0xc6, 0x84, 0x3d, 0x53, 0xf6, 0x53, 0x3e, 0xee, 0xa6, 0x29, 0x3c, 
  0x15, 0x82, 0x09, 0xbe, 0x16, 0x3e, 0x86, 0x3c, 0x9e, 0x12, 0x03, 0xbe, 
  0x33, 0x8d, 0xa6, 0xbc, 0xe3, 0x5e, 0x21, 0xbe, 0x68, 0x88, 0x31, 0x3e, 
  0xa3, 0x65, 0xd3, 0xbd, 0x15, 0xea, 0xb2, 0x3d, 0x54, 0x4b, 0x76, 0x3e, 
  0x0d, 0x48, 0x94, 0xbd, 0x71, 0xa7, 0x04, 0xbc, 0x82, 0x88, 0x31, 0xbe, 
  0x77, 0xd0, 0xbc, 0xbd, 0x92, 0xe2, 0xef, 0xbc, 0x31, 0xe8, 0x5d, 0x3b, 
  0x59, 0x4c, 0x90, 0xbe, 0x9b, 0xc4, 0x03, 0x3d, 0xf7, 0xfe, 0xf7, 0xbd, 
  0x33, 0x2d, 0x13, 0xbd, 0xc7, 0x0d, 0xfa, 0xbc, 0x8e, 0x64, 0xe8, 0x3d, 
  0xad, 0x3f, 0x17, 0x3c, 0xdb, 0x78, 0xd7, 0xbc, 0x76, 0xc4, 0x30, 0x3e, 
  0xe2, 0x8b, 0xc2, 0x3d, 0x4a, 0xad, 0x8d, 0x3d, 0x4e, 0xe8, 0x60, 0xbc, 
  0x6b, 0x77, 0x30, 0xbd, 0xb7, 0x34, 0x35, 0x3e, 0xaf, 0x72, 0x26, 0x3e, 
  0xa0, 0xa2, 0x95, 0xbd, 0x97, 0x37, 0x85, 0xbd, 0x07, 0x2a, 0x3f, 0x3e, 
  0xfd, 0x26, 0x1b, 0xbd, 0x7d, 0xd5, 0xbf, 0x3d, 0x0d, 0xf3, 0x99, 0x3a, 
  0xf7, 0x34, 0x4d, 0x3b, 0x62, 0x7a, 0x90, 0x3e, 0x56, 0x33, 0x5d, 0xbd, 
  0xcd, 0x97, 0x06, 0xbe, 0xd8, 0x50, 0x32, 0x3d, 0xb6, 0x20, 0xa7, 0xbd, 
  0xbf, 0x59, 0x3a, 0x3d, 0xc7, 0xc2, 0x3c, 0x3e, 0xbf, 0x96, 0xbb, 0xbd, 
  0x6c, 0xb6, 0xc5, 0xbd, 0x12, 0x16, 0xf8, 0xbd, 0x52, 0xb1, 0x98, 0x3e, 
  0x2f, 0x8b, 0x24, 0xbe, 0xb1, 0x5d, 0x5b, 0x3e, 0x33, 0x3b, 0x09, 0x3c, 
  0xb9, 0x6d, 0xd3, 0xbd, 0x46, 0x92, 0x77, 0xbe, 0x17, 0x44, 0x5f, 0xbe, 
  0x6d, 0x20, 0x82, 0x3e, 0x9d, 0x9a, 0x3c, 0xbe, 0xce, 0xfd, 0xed, 0xbc, 
  0x3f, 0xa5, 0x72, 0xbe, 0x5b, 0x13, 0x3d, 0xbe, 0x5c, 0x60, 0x3f, 0x3e, 
  0x5e, 0x84, 0x02, 0xbe, 0x8e, 0x0a, 0x49, 0x3c, 0x85, 0x98, 0x74, 0x3e, 
  0x94, 0x4a, 0xc2, 0xbc, 0x3d, 0xb4, 0x72, 0xbd, 0x9f, 0xd7, 0x48, 0xbc, 
  0x5e, 0x6e, 0x84, 0xbe, 0xad, 0xf3, 0x79, 0xbe, 0xa9, 0x93, 0x18, 0x3d, 
  0xd9, 0x98, 0x2a, 0xbe, 0xde, 0x9c, 0x7a, 0xbe, 0xfc, 0xad, 0xe9, 0xbc, 
  0x8e, 0x38, 0x67, 0xba, 0x1c, 0xf3, 0x31, 0x3e, 0xcb, 0x54, 0x29, 0x3e, 
  0x9a, 0xdd, 0x4a, 0x3d, 0xb6, 0x3a, 0xa0, 0x3d, 0xa4, 0x97, 0x76, 0x3d, 
  0x74, 0xf0, 0x28, 0xbe, 0xd6, 0xce, 0x64, 0x3e, 0xfb, 0xa5, 0x0f, 0xbe, 
  0x75, 0xf5, 0x08, 0x3e, 0x0c, 0x03, 0xf4, 0x3d, 0xb1, 0xba, 0x61, 0x3e, 
  0x6f, 0x11, 0x2d, 0xbe, 0x38, 0x69, 0x42, 0x3e, 0xfa, 0x51, 0xc4, 0xbd, 
  0xf5, 0x8b, 0x0b, 0xbd, 0xaf, 0x7f, 0x4c, 0xbc, 0xf9, 0x9d, 0x76, 0xbe, 
  0x75, 0xd6, 0x08, 0xbe, 0xf6, 0x5b, 0x3a, 0xb9, 0x25, 0x8a, 0xf4, 0xbd, 
  0x08, 0x54, 0x10, 0xbe, 0x53, 0xfd, 0x79, 0x3e, 0x8e, 0xe2, 0xcd, 0x3c, 
  0xed, 0x40, 0x83, 0x3e, 0xe0, 0x5c, 0x3e, 0x3e, 0x05, 0x36, 0xd6, 0x3d, 
  0x23, 0x32, 0x06, 0x3d, 0xd6, 0xcc, 0x20, 0xbb, 0x91, 0x1d, 0xfe, 0x3c, 
  0xb7, 0x8c, 0x62, 0x3e, 0x51, 0x81, 0x8a, 0xbd, 0x03, 0x69, 0x02, 0x3e, 
  0x40, 0x3c, 0x1a, 0x3e, 0x74, 0x37, 0xb6, 0x3d, 0xd7, 0x49, 0x13, 0xbe, 
  0xfe, 0x6f, 0xbe, 0xbc, 0x6b, 0x22, 0x67, 0xbe, 0x99, 0x3d, 0x4b, 0xbe, 
  0xcb, 0xfb, 0x8a, 0xbe, 0x06, 0xcb, 0xd5, 0xbd, 0xf3, 0x1b, 0xa0, 0x3d, 
  0xef, 0x8c, 0xe0, 0xbc, 0xe8, 0x2f, 0x1d, 0xbd, 0x1d, 0xe5, 0xce, 0x3d, 
  0x08, 0x66, 0x89, 0xbd, 0xae, 0x09, 0x84, 0xbd, 0xea, 0xb8, 0x52, 0x3e, 
  0xcd, 0x20, 0xc6, 0xbd, 0xf6, 0x68, 0x15, 0xbd, 0x1d, 0x63, 0x47, 0x3d, 
  0x19, 0xf1, 0x44, 0x3d, 0xc1, 0xc3, 0x29, 0xbe, 0xe7, 0x24, 0x41, 0xbe, 
  0xf2, 0x45, 0xb2, 0x3d, 0xd5, 0x8c, 0x3a, 0x3e, 0xe7, 0xa8, 0x54, 0xbd, 
  0x1a, 0x41, 0x9a, 0xbc, 0x46, 0xf9, 0x8e, 0xbe, 0x39, 0x54, 0x5e, 0x3e, 
  0xc7, 0xf3, 0x2b, 0x3e, 0xf6, 0x91, 0x30, 0x3d, 0x03, 0x06, 0x19, 0x3e, 
  0x35, 0x50, 0x36, 0xbe, 0xde, 0x1c, 0xcb, 0x3c, 0x5b, 0x33, 0x51, 0x3e, 
  0x47, 0xd3, 0x0c, 0xbe, 0x92, 0x5c, 0x84, 0x3c, 0xce, 0xb8, 0xc9, 0xbd, 
  0x02, 0x62, 0x12, 0x3e, 0x17, 0x6a, 0x04, 0x3e, 0xeb, 0x9f, 0x93, 0xbd, 
  0x10, 0x3f, 0x5f, 0xbe, 0x44, 0x17, 0x4c, 0x3e, 0xce, 0x42, 0x46, 0xbe, 
  0xf5, 0x01, 0x0b, 0xbe, 0x29, 0x69, 0xea, 0x3d, 0xd1, 0x48, 0xe6, 0x3d, 
  0xba, 0xd9, 0x7c, 0xbd, 0x1f, 0x52, 0xba, 0xbd, 0x4f, 0x4a, 0xc5, 0x3d, 
  0x05, 0xf9, 0x7a, 0xbb, 0x91, 0x8f, 0x3e, 0xbd, 0xe7, 0x7a, 0x90, 0x3d, 
  0x68, 0x24, 0xf9, 0x3c, 0x14, 0xcf, 0xad, 0xbd, 0xe4, 0x53, 0x7a, 0xbd, 
  0x67, 0x17, 0x52, 0xbd, 0x80, 0x42, 0x81, 0xbd, 0x52, 0x10, 0x9b, 0xbc, 
  0x84, 0x91, 0x0b, 0x3e, 0x84, 0x03, 0x5a, 0xbe, 0x18, 0xda, 0x58, 0xbe, 
  0xf5, 0x4b, 0x6e, 0x3c, 0x67, 0xea, 0xb5, 0xbd, 0xab, 0xfd, 0x7e, 0xbe, 
  0x51, 0xc8, 0x34, 0xbd, 0x89, 0xd3, 0x6b, 0xbd, 0x5f, 0xf5, 0x83, 0x3e, 
  0xce, 0x3f, 0x22, 0x3e, 0x4f, 0x04, 0x13, 0xbe, 0xac, 0x5d, 0x04, 0xbd, 
  0x16, 0xad, 0xf3, 0x3d, 0x59, 0x38, 0xb6, 0xbd, 0xaa, 0x3c, 0x6b, 0x3e, 
  0xe6, 0x8f, 0x3b, 0x3e, 0xee, 0xb0, 0x62, 0x3e, 0xfc, 0x2e, 0x14, 0x3e, 
  0xab, 0x86, 0x87, 0x3c, 0x9d, 0x87, 0xd7, 0x3b, 0x88, 0x31, 0x44, 0x3e, 
  0x2b, 0xd0, 0x32, 0x3d, 0xe6, 0xda, 0x87, 0xbd, 0x78, 0xac, 0x43, 0xbd, 
  0xe0, 0xb1, 0x28, 0xbd, 0xbe, 0x65, 0x37, 0xbd, 0x90, 0x1d, 0xe4, 0xbc, 
  0x20, 0x9a, 0xa4, 0xbc, 0xe6, 0x61, 0xc7, 0x3d, 0xfa, 0x56, 0xb3, 0x3c, 
  0xdd, 0x81, 0xff, 0x3d, 0x81, 0xb9, 0x3b, 0x3e, 0x99, 0x6c, 0x92, 0xbd, 
  0xd0, 0x45, 0x2c, 0x3d, 0xf5, 0xb7, 0xba, 0xbc, 0x9e, 0x9f, 0x0f, 0x3d, 
  0xf8, 0xa4, 0xcf, 0x3d, 0x6c, 0x49, 0x79, 0xbc, 0x19, 0xee, 0x5d, 0x3e, 
  0x4c, 0x0c, 0x61, 0x3e, 0x41, 0x2c, 0x59, 0xbd, 0x28, 0x65, 0x87, 0x3d, 
  0x3f, 0xbe, 0x5f, 0xbe, 0x9f, 0x86, 0x16, 0x3e, 0x0d, 0xb6, 0x5e, 0xbe, 
  0x09, 0x31, 0x1c, 0xbe, 0xc5, 0xdb, 0x70, 0xbe, 0xe1, 0x40, 0x4b, 0x3d, 
  0xd6, 0x41, 0xf7, 0xbd, 0xe0, 0x59, 0x01, 0x3d, 0xa9, 0x0b, 0x59, 0x3d, 
  0x2c, 0x69, 0xbe, 0xbd, 0xb6, 0x0c, 0xd1, 0x3b, 0x4c, 0xcf, 0xf5, 0x3d, 
  0xee, 0x77, 0x15, 0x3e, 0x20, 0x3a, 0x6c, 0xbd, 0xcb, 0x94, 0x31, 0x3d, 
  0xf5, 0x39, 0x84, 0xbe, 0x96, 0x6e, 0x73, 0xbe, 0x61, 0xea, 0x84, 0xbe, 
  0xc8, 0x14, 0x27, 0x3e, 0xf6, 0x53, 0xb6, 0x3d, 0xb2, 0x06, 0x6d, 0xbe, 
  0x87, 0xba, 0xa6, 0xbb, 0x27, 0xed, 0x62, 0xbe, 0x96, 0x23, 0x75, 0x3d, 
  0xfe, 0xfc, 0xcc, 0x3d, 0x1d, 0x53, 0x7e, 0x3d, 0xcd, 0x93, 0x49, 0x3e, 
  0x8a, 0x88, 0x4b, 0x3d, 0xd5, 0x17, 0x80, 0xbe, 0xb1, 0xf4, 0x39, 0x3d, 
  0x83, 0xd2, 0xae, 0x3b, 0x20, 0x06, 0x73, 0xbc, 0x90, 0xa5, 0x2d, 0xbe, 
  0xf9, 0x1b, 0x4e, 0xbe, 0x17, 0x2a, 0x1e, 0xbe, 0xd4, 0x2b, 0x11, 0xbe, 
  0x11, 0x2c, 0x19, 0xbc, 0xc2, 0xba, 0x03, 0x3e, 0x64, 0xe6, 0x3c, 0xbe, 
  0xf5, 0x7e, 0xa3, 0xbd, 0x54, 0xd1, 0x44, 0x3d, 0xe4, 0x61, 0xc8, 0xbc, 
  0xdc, 0xb5, 0xf8, 0x3d, 0xf9, 0x8b, 0xf5, 0x3d, 0x76, 0xfd, 0x9c, 0xbd, 
  0x8e, 0xb3, 0xbe, 0xbd, 0x65, 0x11, 0xa4, 0x3c, 0xc2, 0x5e, 0x39, 0x3e, 
  0x46, 0xfd, 0x3a, 0x3c, 0x5f, 0x91, 0x1c, 0xbe, 0xe9, 0x3a, 0x2e, 0xbe, 
  0x89, 0x8a, 0x05, 0xbd, 0xec, 0x37, 0x8e, 0x3e, 0x56, 0xd1, 0x1b, 0xbe, 
  0x3c, 0x7a, 0xac, 0xbd, 0x42, 0x3b, 0x80, 0x3c, 0xd2, 0xa3, 0xf6, 0x3c, 
  0x07, 0x17, 0xa2, 0xbd, 0x65, 0x51, 0x53, 0x3e, 0xc0, 0x77, 0x93, 0x3c, 
  0xf7, 0xd5, 0x85, 0x3c, 0xad, 0xdc, 0x33, 0x3e, 0x52, 0xfb, 0xd4, 0xbd, 
  0x38, 0x62, 0x94, 0x3d, 0x32, 0x79, 0x15, 0x3e, 0xb8, 0xb1, 0xd7, 0x3d, 
  0x8e, 0x37, 0x9b, 0xbc, 0x8c, 0xa3, 0xc7, 0xbd, 0x4f, 0x2f, 0x56, 0x3e, 
  0xdf, 0xc9, 0x15, 0x3e, 0x07, 0x29, 0x3a, 0x3e, 0x1b, 0xcf, 0xbf, 0xbc, 
  0xf3, 0x1e, 0x03, 0x3b, 0xe8, 0x2c, 0x4d, 0xbe, 0xb0, 0x84, 0x01, 0xbe, 
  0x1d, 0xed, 0x39, 0xbe, 0xcd, 0xc1, 0x42, 0x3d, 0x4f, 0xd6, 0x12, 0x3e, 
  0x95, 0xdc, 0xac, 0x3d, 0x99, 0x57, 0x1d, 0x3e, 0x3a, 0x2c, 0x54, 0xbe, 
  0xda, 0xd8, 0x0e, 0x3e, 0xfb, 0x8b, 0x20, 0xbe, 0x97, 0x6d, 0xf5, 0xbb, 
  0x8b, 0xbb, 0x02, 0x3e, 0x07, 0xd6, 0x0e, 0xbe, 0xe3, 0x61, 0x3b, 0xbe, 
  0xd3, 0x67, 0x1d, 0xbe, 0xbb, 0xd6, 0x36, 0xbe, 0x29, 0x85, 0x75, 0xbe, 
  0xf9, 0x63, 0x92, 0x3d, 0xc0, 0xef, 0x30, 0xbd, 0x64, 0x2c, 0xdb, 0xbd, 
  0xef, 0xa0, 0x19, 0x3e, 0x64, 0x44, 0x0a, 0xbe, 0x64, 0x34, 0x4f, 0x3d, 
  0xe8, 0x37, 0x09, 0x3e, 0x51, 0x61, 0x1b, 0xbe, 0x68, 0x39, 0x5a, 0x3d, 
  0x1f, 0xd4, 0xcd, 0x3c, 0xbf, 0x6b, 0x83, 0x3e, 0xee, 0x81, 0xa7, 0xbc, 
  0x8b, 0x3e, 0x2f, 0xbe, 0x65, 0x5e, 0x91, 0xbe, 0x21, 0x81, 0x23, 0x3e, 
  0x71, 0x99, 0x16, 0x3c, 0x00, 0xc5, 0x9b, 0x3d, 0x82, 0xb6, 0xb2, 0xbc, 
  0xc5, 0xb6, 0xf1, 0x3d, 0x43, 0x4f, 0xa8, 0xbd, 0x96, 0x0d, 0x29, 0xbe, 
  0xba, 0x62, 0x2a, 0x3e, 0x4f, 0x46, 0x7b, 0xbe, 0x26, 0xc3, 0x28, 0x3e, 
  0xb7, 0x0c, 0x37, 0xbe, 0xe2, 0xff, 0xbf, 0x3c, 0xd2, 0x8c, 0x85, 0xbe, 
  0x2e, 0xe8, 0x78, 0x3d, 0x08, 0x13, 0x82, 0x3d, 0x91, 0x6f, 0x37, 0x3e, 
  0x9a, 0x59, 0x10, 0x3c, 0x7f, 0x11, 0x5d, 0xbe, 0x96, 0x59, 0x44, 0xbd, 
  0x45, 0x35, 0xe4, 0x3d, 0x17, 0x2d, 0x1d, 0x3e, 0x4b, 0x8d, 0x37, 0x3e, 
  0x5c, 0x93, 0x1c, 0xbb, 0x64, 0x8c, 0x3f, 0x3e, 0x95, 0x33, 0x1a, 0xbd, 
  0x8e, 0xb4, 0x2e, 0x3e, 0x65, 0x63, 0x65, 0x3e, 0x25, 0x6f, 0xf5, 0x3c, 
  0x56, 0x4a, 0x00, 0xbe, 0x49, 0x05, 0x33, 0xbc, 0xed, 0xb4, 0x4b, 0xbe, 
  0xb8, 0x84, 0xf9, 0x3c, 0x5c, 0x2f, 0x93, 0x3d, 0x1c, 0xba, 0x8e, 0xbd, 
  0xa3, 0x18, 0xbf, 0x3c, 0xec, 0x3e, 0x7d, 0xbe, 0x9a, 0x27, 0x34, 0xbe, 
  0x60, 0x03, 0x1d, 0x3e, 0xd5, 0xa4, 0x80, 0x3d, 0x1a, 0x4e, 0x66, 0xbe, 
  0xba, 0x7f, 0x0e, 0x3e, 0xca, 0xe9, 0xde, 0xbd, 0x33, 0x8c, 0x7b, 0x3d, 
  0xaa, 0x3b, 0xbb, 0x3d, 0x76, 0x7e, 0x1c, 0xbd, 0x02, 0x03, 0x1d, 0x3e, 
  0xd1, 0xf9, 0xff, 0xba, 0x2d, 0x13, 0x71, 0x3e, 0x8e, 0x38, 0x01, 0xbe, 
  0x8d, 0x4d, 0x15, 0xba, 0x53, 0xc8, 0x83, 0x3d, 0xbd, 0xbc, 0x21, 0x3e, 
  0xed, 0xa9, 0x39, 0x3e, 0x06, 0x6d, 0x71, 0x3d, 0xe4, 0xe4, 0x81, 0x3e, 
  0xa1, 0x49, 0x73, 0x3e, 0x32, 0xd7, 0xe2, 0x3b, 0xf5, 0x73, 0x78, 0x3d, 
  0x5d, 0xea, 0x15, 0xbe, 0xf4, 0x9e, 0xcd, 0xbd, 0x2f, 0x63, 0x07, 0x3e, 
  0xf7, 0x21, 0x41, 0xbe, 0xcb, 0x67, 0x02, 0x3b, 0xda, 0x93, 0x13, 0xbd, 
  0xbf, 0x78, 0x51, 0xbe, 0x6c, 0xe9, 0x14, 0xbe, 0x3d, 0x12, 0x51, 0xbe, 
  0xc6, 0x01, 0xce, 0x3d, 0x7f, 0x42, 0x74, 0x3d, 0x85, 0xd2, 0x73, 0x3e, 
  0x76, 0x35, 0x5e, 0xbd, 0xb5, 0x1e, 0x1a, 0xbe, 0xf5, 0xee, 0x5c, 0xbe, 
  0x2a, 0x49, 0x6a, 0x3e, 0x11, 0x29, 0x58, 0x3d, 0x89, 0x4a, 0x0b, 0x3e, 
  0xd1, 0xdd, 0x56, 0x3c, 0x28, 0x75, 0x93, 0xbe, 0x13, 0xdb, 0x9c, 0xbb, 
  0x8c, 0xa0, 0x23, 0x3e, 0x3c, 0x29, 0x24, 0xbd, 0x8c, 0x56, 0x70, 0xbe, 
  0xcf, 0x84, 0x8b, 0xbe, 0x3a, 0xcb, 0x5e, 0xbe, 0xe3, 0xc4, 0x30, 0xbe, 
  0x20, 0x67, 0x65, 0x3e, 0x54, 0xdf, 0xf5, 0x3d, 0xb5, 0x37, 0x15, 0xbd, 
  0x46, 0x6c, 0x51, 0x3e, 0x78, 0xe6, 0xac, 0xbd, 0x45, 0xea, 0x16, 0x3e, 
  0x78, 0x04, 0x2e, 0x3d, 0x54, 0x49, 0x77, 0x3c, 0x38, 0xec, 0x27, 0xbe, 
  0x64, 0x34, 0xca, 0x3d, 0x49, 0x57, 0xe1, 0xbc, 0xd6, 0x9c, 0x8c, 0x3d, 
  0x05, 0xdf, 0x22, 0x3e, 0x53, 0xd6, 0x9c, 0x3c, 0xb3, 0xa4, 0x3e, 0x3e, 
  0xf1, 0x20, 0xf7, 0x3d, 0x82, 0xe2, 0x76, 0xbe, 0x88, 0xb7, 0x0c, 0x3e, 
  0xe7, 0x39, 0xc3, 0xbd, 0x06, 0x77, 0xa4, 0x3a, 0xf3, 0xa8, 0x37, 0x3e, 
  0x0d, 0x60, 0x09, 0x3e, 0xaa, 0xb1, 0x8f, 0x3d, 0x6a, 0xa3, 0x47, 0xbe, 
  0xb2, 0xf1, 0xb8, 0x39, 0xd1, 0xa5, 0x25, 0x3e, 0x7b, 0xab, 0x6c, 0xbd, 
  0xb3, 0x5a, 0xce, 0xbc, 0x01, 0xe4, 0x09, 0xbe, 0x00, 0x07, 0x34, 0x3e, 
  0x66, 0x7a, 0x4b, 0xbe, 0x76, 0xd9, 0x26, 0xbd, 0x5d, 0x77, 0x0a, 0x3d, 
  0x82, 0x2e, 0x1c, 0x3c, 0xd8, 0x24, 0x89, 0xbe, 0xb6, 0xc5, 0x4f, 0x3e, 
  0x21, 0x66, 0x13, 0x3e, 0x8c, 0x21, 0x54, 0xbe, 0x6b, 0xb0, 0x88, 0xbe, 
  0x31, 0x56, 0x01, 0xbe, 0x7b, 0x89, 0x70, 0xbd, 0x1e, 0xd9, 0xcf, 0xbd, 
  0x70, 0x7a, 0xb6, 0xbd, 0xe9, 0xea, 0x7a, 0x3e, 0x76, 0xce, 0x23, 0x3e, 
  0xf5, 0x56, 0x41, 0xbe, 0xf3, 0x22, 0x70, 0xbc, 0x81, 0xf3, 0x60, 0x3e, 
  0xd2, 0xec, 0xd3, 0x3d, 0x7c, 0x56, 0x12, 0x3e, 0x1c, 0xd7, 0x1f, 0xbe, 
  0xe8, 0x85, 0x8e, 0x3e, 0x69, 0x84, 0x35, 0xbe, 0x17, 0x93, 0x90, 0x3c, 
  0x5c, 0xd6, 0x43, 0xbe, 0x0f, 0x38, 0x8c, 0x3e, 0xc3, 0x94, 0x34, 0xbe, 
  0x57, 0x0a, 0x59, 0x3e, 0x76, 0xa5, 0x51, 0xbe, 0x1b, 0xcc, 0xec, 0xbd, 
  0x07, 0xe3, 0x03, 0x3c, 0x9a, 0x50, 0x26, 0xbe, 0xef, 0xb3, 0x7d, 0xbd, 
  0x77, 0xc4, 0x69, 0xbd, 0xd9, 0xcf, 0xf8, 0xbd, 0x05, 0x2b, 0x75, 0x3e, 
  0xca, 0xb2, 0xa0, 0x3e, 0xa4, 0x43, 0x22, 0xbe, 0xff, 0x9e, 0x64, 0xbd, 
  0x2e, 0x1b, 0xd3, 0xbc, 0xb5, 0x41, 0xd8, 0xbd, 0x3c, 0x0a, 0x9f, 0x3e, 
  0x77, 0x45, 0x93, 0xbd, 0x90, 0x60, 0x77, 0xbe, 0xb7, 0x5a, 0x44, 0xbe, 
  0x3e, 0xf5, 0x95, 0xbd, 0xf5, 0x4e, 0x6b, 0xbe, 0xbe, 0xf9, 0x24, 0xbe, 
  0x00, 0x4e, 0xe7, 0x3d, 0x4d, 0x70, 0x91, 0x3e, 0xcb, 0x3b, 0x38, 0xbe, 
  0xf9, 0x73, 0x1a, 0xbc, 0x97, 0x99, 0x51, 0xbe, 0xc7, 0x56, 0x65, 0xbe, 
  0x0d, 0xe0, 0x00, 0x3e, 0xa7, 0x5d, 0x3f, 0x3e, 0x09, 0xee, 0x4e, 0x3d, 
  0xf7, 0xca, 0x6e, 0x3d, 0x0a, 0xcd, 0x0f, 0xbd, 0xef, 0x3c, 0x1d, 0xbe, 
  0x3d, 0x2a, 0xba, 0x3b, 0x52, 0xbc, 0x44, 0xbd, 0x86, 0x62, 0x94, 0xbd, 
  0x8c, 0x14, 0x1a, 0x3e, 0xd5, 0x51, 0xb2, 0x3d, 0xd9, 0x1f, 0x69, 0xbe, 
  0xec, 0xc4, 0x01, 0xbe, 0x1e, 0x62, 0x78, 0x3e, 0x1b, 0x19, 0x32, 0xbe, 
  0x6a, 0x6a, 0x17, 0xbe, 0x3f, 0x53, 0x6e, 0x3e, 0xfa, 0x8a, 0x2f, 0x3e, 
  0xe2, 0x4b, 0x7d, 0xbb, 0x17, 0x6c, 0x74, 0xbe, 0xce, 0x07, 0xce, 0xbd, 
  0x0a, 0x5d, 0x0f, 0x3d, 0x04, 0xd3, 0x49, 0x3e, 0xc4, 0x2f, 0x27, 0xbe, 
  0x00, 0x00, 0x06, 0x00, 0x08, 0x00, 0x04, 0x00, 0x06, 0x00, 0x00, 0x00, 
  0x04, 0x00, 0x00, 0x00, 0xc0, 0x00, 0x00, 0x00, 0x6d, 0x47, 0xa5, 0x3d, 
  0x20, 0x38, 0x43, 0xbc, 0x31, 0x1d, 0x29, 0x3d, 0xb6, 0xab, 0xa6, 0x3d, 
  0x61, 0x33, 0x11, 0x3d, 0xa0, 0x1f, 0x89, 0xbd, 0x19, 0xc8, 0x5b, 0xbd, 
  0x88, 0x9d, 0xd4, 0x3c, 0xae, 0xf1, 0x47, 0xbd, 0x11, 0x7d, 0x2d, 0xbd, 
  0x00, 0xe3, 0x28, 0xbe, 0x7b, 0xbb, 0xad, 0xbc, 0x5b, 0x0c, 0xd4, 0x3c, 
  0x3d, 0x83, 0x10, 0xbd, 0x92, 0xec, 0x2d, 0xbd, 0x9b, 0x5a, 0x60, 0xbd, 
  0xe9, 0xfd, 0xe4, 0x3d, 0x67, 0xdc, 0x48, 0xbd, 0xe5, 0x41, 0x15, 0xbd, 
  0xdd, 0x2d, 0x87, 0x3d, 0x37, 0x6b, 0xef, 0x3c, 0x00, 0xda, 0x8c, 0xbd, 
  0x57, 0xfa, 0xab, 0xbb, 0x02, 0x94, 0x0d, 0x3d, 0xab, 0x1d, 0xbf, 0x3d, 
  0x9a, 0xbe, 0x58, 0x3c, 0x25, 0x77, 0x96, 0xbd, 0x12, 0x30, 0x3d, 0xbd, 
  0xf1, 0x37, 0xc9, 0xbd, 0x1d, 0xeb, 0xcf, 0x3c, 0xee, 0x6f, 0x8a, 0x3d, 
  0xdb, 0xca, 0x68, 0x3c, 0x4f, 0xd4, 0x79, 0xbd, 0x43, 0x91, 0x63, 0xbd, 
  0xe2, 0x9c, 0x14, 0x3b, 0x1d, 0x2a, 0x22, 0x3c, 0x65, 0x8e, 0x8e, 0x3d, 
  0xf2, 0xbe, 0x75, 0xbd, 0xbe, 0xd5, 0x86, 0x3b, 0xa8, 0x04, 0xba, 0xbd, 
  0xda, 0xb2, 0x9f, 0x3c, 0x4a, 0x53, 0x13, 0x3d, 0x8c, 0x64, 0x56, 0xbd, 
  0xb8, 0xd2, 0xfc, 0x3c, 0x28, 0xe4, 0x8b, 0x3d, 0x57, 0x78, 0xc8, 0x3c, 
  0xa2, 0xd2, 0x6f, 0x3d, 0x9e, 0x83, 0xf7, 0xbc, 0x10, 0xf2, 0xff, 0xff, 
  0x14, 0xf2, 0xff, 0xff, 0x0f, 0x00, 0x00, 0x00, 0x4d, 0x4c, 0x49, 0x52, 
  0x20, 0x43, 0x6f, 0x6e, 0x76, 0x65, 0x72, 0x74, 0x65, 0x64, 0x2e, 0x00, 
  0x01, 0x00, 0x00, 0x00, 0x14, 0x00, 0x00, 0x00, 0x00, 0x00, 0x0e, 0x00, 
  0x18, 0x00, 0x14, 0x00, 0x10, 0x00, 0x0c, 0x00, 0x08, 0x00, 0x04, 0x00, 
  0x0e, 0x00, 0x00, 0x00, 0x14, 0x00, 0x00, 0x00, 0x1c, 0x00, 0x00, 0x00, 
  0x8c, 0x01, 0x00, 0x00, 0x90, 0x01, 0x00, 0x00, 0x94, 0x01, 0x00, 0x00, 
  0x04, 0x00, 0x00, 0x00, 0x6d, 0x61, 0x69, 0x6e, 0x00, 0x00, 0x00, 0x00, 
  0x06, 0x00, 0x00, 0x00, 0x34, 0x01, 0x00, 0x00, 0xe0, 0x00, 0x00, 0x00, 
  0xa8, 0x00, 0x00, 0x00, 0x70, 0x00, 0x00, 0x00, 0x38, 0x00, 0x00, 0x00, 
  0x04, 0x00, 0x00, 0x00, 0xf2, 0xfe, 0xff, 0xff, 0x10, 0x00, 0x00, 0x00, 
  0x00, 0x00, 0x00, 0x08, 0x0c, 0x00, 0x00, 0x00, 0x10, 0x00, 0x00, 0x00, 
  0x98, 0xf2, 0xff, 0xff, 0x01, 0x00, 0x00, 0x00, 0x12, 0x00, 0x00, 0x00, 
  0x03, 0x00, 0x00, 0x00, 0x11, 0x00, 0x00, 0x00, 0x05, 0x00, 0x00, 0x00, 
  0x04, 0x00, 0x00, 0x00, 0x22, 0xff, 0xff, 0xff, 0x10, 0x00, 0x00, 0x00, 
  0x00, 0x00, 0x00, 0x08, 0x10, 0x00, 0x00, 0x00, 0x14, 0x00, 0x00, 0x00, 
  0x64, 0xff, 0xff, 0xff, 0x00, 0x00, 0x01, 0x01, 0x01, 0x00, 0x00, 0x00, 
  0x11, 0x00, 0x00, 0x00, 0x03, 0x00, 0x00, 0x00, 0x10, 0x00, 0x00, 0x00, 
  0x0b, 0x00, 0x00, 0x00, 0x0a, 0x00, 0x00, 0x00, 0x56, 0xff, 0xff, 0xff, 
  0x10, 0x00, 0x00, 0x00, 0x00, 0x00, 0x00, 0x08, 0x10, 0x00, 0x00, 0x00, 
  0x14, 0x00, 0x00, 0x00, 0x46, 0xff, 0xff, 0xff, 0x00, 0x00, 0x00, 0x01, 
  0x01, 0x00, 0x00, 0x00, 0x10, 0x00, 0x00, 0x00, 0x03, 0x00, 0x00, 0x00, 
  0x0f, 0x00, 0x00, 0x00, 0x03, 0x00, 0x00, 0x00, 0x09, 0x00, 0x00, 0x00, 
  0x8a, 0xff, 0xff, 0xff, 0x10, 0x00, 0x00, 0x00, 0x00, 0x00, 0x00, 0x08, 
  0x10, 0x00, 0x00, 0x00, 0x14, 0x00, 0x00, 0x00, 0x7a, 0xff, 0xff, 0xff, 
  0x00, 0x00, 0x00, 0x01, 0x01, 0x00, 0x00, 0x00, 0x0f, 0x00, 0x00, 0x00, 
  0x03, 0x00, 0x00, 0x00, 0x0e, 0x00, 0x00, 0x00, 0x08, 0x00, 0x00, 0x00, 
  0x07, 0x00, 0x00, 0x00, 0xbe, 0xff, 0xff, 0xff, 0x1c, 0x00, 0x00, 0x00, 
  0x00, 0x00, 0x00, 0x08, 0x1c, 0x00, 0x00, 0x00, 0x20, 0x00, 0x00, 0x00, 
  0x0c, 0x00, 0x08, 0x00, 0x07, 0x00, 0x00, 0x00, 0x00, 0x00, 0x06, 0x00, 
  0x0c, 0x00, 0x00, 0x00, 0x00, 0x00, 0x01, 0x01, 0x01, 0x00, 0x00, 0x00, 
  0x0e, 0x00, 0x00, 0x00, 0x03, 0x00, 0x00, 0x00, 0x0d, 0x00, 0x00, 0x00, 
  0x0c, 0x00, 0x00, 0x00, 0x06, 0x00, 0x00, 0x00, 0x00, 0x00, 0x0e, 0x00, 
  0x16, 0x00, 0x00, 0x00, 0x10, 0x00, 0x0c, 0x00, 0x0b, 0x00, 0x04, 0x00, 
  0x0e, 0x00, 0x00, 0x00, 0x18, 0x00, 0x00, 0x00, 0x00, 0x00, 0x00, 0x08, 
  0x18, 0x00, 0x00, 0x00, 0x1c, 0x00, 0x00, 0x00, 0x00, 0x00, 0x06, 0x00, 
  0x08, 0x00, 0x07, 0x00, 0x06, 0x00, 0x00, 0x00, 0x00, 0x00, 0x00, 0x01, 
  0x01, 0x00, 0x00, 0x00, 0x0d, 0x00, 0x00, 0x00, 0x03, 0x00, 0x00, 0x00, 
  0x00, 0x00, 0x00, 0x00, 0x02, 0x00, 0x00, 0x00, 0x01, 0x00, 0x00, 0x00, 
  0x01, 0x00, 0x00, 0x00, 0x12, 0x00, 0x00, 0x00, 0x01, 0x00, 0x00, 0x00, 
  0x00, 0x00, 0x00, 0x00, 0x13, 0x00, 0x00, 0x00, 0xe8, 0x0b, 0x00, 0x00, 
  0x94, 0x0b, 0x00, 0x00, 0x3c, 0x0b, 0x00, 0x00, 0xfc, 0x0a, 0x00, 0x00, 
  0xc0, 0x0a, 0x00, 0x00, 0x80, 0x0a, 0x00, 0x00, 0x44, 0x0a, 0x00, 0x00, 
  0x08, 0x0a, 0x00, 0x00, 0xc8, 0x09, 0x00, 0x00, 0x8c, 0x09, 0x00, 0x00, 
  0x50, 0x09, 0x00, 0x00, 0xa8, 0x06, 0x00, 0x00, 0x18, 0x05, 0x00, 0x00, 
  0x5c, 0x04, 0x00, 0x00, 0x48, 0x03, 0x00, 0x00, 0x30, 0x02, 0x00, 0x00, 
  0x74, 0x01, 0x00, 0x00, 0x60, 0x00, 0x00, 0x00, 0x04, 0x00, 0x00, 0x00, 
  0x7a, 0xf4, 0xff, 0xff, 0x00, 0x00, 0x00, 0x01, 0x14, 0x00, 0x00, 0x00, 
  0x1c, 0x00, 0x00, 0x00, 0x1c, 0x00, 0x00, 0x00, 0x13, 0x00, 0x00, 0x00, 
  0x34, 0x00, 0x00, 0x00, 0x02, 0x00, 0x00, 0x00, 0xff, 0xff, 0xff, 0xff, 
  0x10, 0x00, 0x00, 0x00, 0x64, 0xf4, 0xff, 0xff, 0x1b, 0x00, 0x00, 0x00, 
  0x53, 0x74, 0x61, 0x74, 0x65, 0x66, 0x75, 0x6c, 0x50, 0x61, 0x72, 0x74, 
  0x69, 0x74, 0x69, 0x6f, 0x6e, 0x65, 0x64, 0x43, 0x61, 0x6c, 0x6c, 0x5f, 
  0x31, 0x3a, 0x30, 0x00, 0x02, 0x00, 0x00, 0x00, 0x01, 0x00, 0x00, 0x00, 
  0x10, 0x00, 0x00, 0x00, 0xd2, 0xf4, 0xff, 0xff, 0x00, 0x00, 0x00, 0x01, 
  0x14, 0x00, 0x00, 0x00, 0x1c, 0x00, 0x00, 0x00, 0x1c, 0x00, 0x00, 0x00, 
  0x12, 0x00, 0x00, 0x00, 0xec, 0x00, 0x00, 0x00, 0x02, 0x00, 0x00, 0x00, 
  0xff, 0xff, 0xff, 0xff, 0x30, 0x00, 0x00, 0x00, 0xbc, 0xf4, 0xff, 0xff, 
  0xd3, 0x00, 0x00, 0x00, 0x72, 0x65, 0x66, 0x69, 0x6e, 0x65, 0x64, 0x5f, 
  0x61, 0x75, 0x74, 0x6f, 0x65, 0x6e, 0x63, 0x6f, 0x64, 0x65, 0x72, 0x5f, 
  0x31, 0x2f, 0x62, 0x6e, 0x5f, 0x33, 0x5f, 0x31, 0x2f, 0x62, 0x61, 0x74, 
  0x63, 0x68, 0x6e, 0x6f, 0x72, 0x6d, 0x2f, 0x6d, 0x75, 0x6c, 0x5f, 0x31, 
  0x3b, 0x72, 0x65, 0x66, 0x69, 0x6e, 0x65, 0x64, 0x5f, 0x61, 0x75, 0x74, 
  0x6f, 0x65, 0x6e, 0x63, 0x6f, 0x64, 0x65, 0x72, 0x5f, 0x31, 0x2f, 0x62, 
  0x6e, 0x5f, 0x33, 0x5f, 0x31, 0x2f, 0x62, 0x61, 0x74, 0x63, 0x68, 0x6e, 
  0x6f, 0x72, 0x6d, 0x2f, 0x61, 0x64, 0x64, 0x5f, 0x31, 0x3b, 0x72, 0x65, 
  0x66, 0x69, 0x6e, 0x65, 0x64, 0x5f, 0x61, 0x75, 0x74, 0x6f, 0x65, 0x6e, 
  0x63, 0x6f, 0x64, 0x65, 0x72, 0x5f, 0x31, 0x2f, 0x64, 0x65, 0x63, 0x6f, 
  0x64, 0x65, 0x72, 0x5f, 0x32, 0x5f, 0x31, 0x2f, 0x4d, 0x61, 0x74, 0x4d, 
  0x75, 0x6c, 0x3b, 0x72, 0x65, 0x66, 0x69, 0x6e, 0x65, 0x64, 0x5f, 0x61, 
  0x75, 0x74, 0x6f, 0x65, 0x6e, 0x63, 0x6f, 0x64, 0x65, 0x72, 0x5f, 0x31, 
  0x2f, 0x64, 0x65, 0x63, 0x6f, 0x64, 0x65, 0x72, 0x5f, 0x32, 0x5f, 0x31, 
  0x2f, 0x52, 0x65, 0x6c, 0x75, 0x3b, 0x72, 0x65, 0x66, 0x69, 0x6e, 0x65, 
  0x64, 0x5f, 0x61, 0x75, 0x74, 0x6f, 0x65, 0x6e, 0x63, 0x6f, 0x64, 0x65, 
  0x72, 0x5f, 0x31, 0x2f, 0x64, 0x65, 0x63, 0x6f, 0x64, 0x65, 0x72, 0x5f, 
  0x32, 0x5f, 0x31, 0x2f, 0x42, 0x69, 0x61, 0x73, 0x41, 0x64, 0x64, 0x00, 
  0x02, 0x00, 0x00, 0x00, 0x01, 0x00, 0x00, 0x00, 0x30, 0x00, 0x00, 0x00, 
  0xe2, 0xf5, 0xff, 0xff, 0x00, 0x00, 0x00, 0x01, 0x14, 0x00, 0x00, 0x00, 
  0x1c, 0x00, 0x00, 0x00, 0x1c, 0x00, 0x00, 0x00, 0x11, 0x00, 0x00, 0x00, 
  0x94, 0x00, 0x00, 0x00, 0x02, 0x00, 0x00, 0x00, 0xff, 0xff, 0xff, 0xff, 
  0x18, 0x00, 0x00, 0x00, 0xcc, 0xf5, 0xff, 0xff, 0x79, 0x00, 0x00, 0x00, 
  0x72, 0x65, 0x66, 0x69, 0x6e, 0x65, 0x64, 0x5f, 0x61, 0x75, 0x74, 0x6f, 
  0x65, 0x6e, 0x63, 0x6f, 0x64, 0x65, 0x72, 0x5f, 0x31, 0x2f, 0x64, 0x65, 
  0x63, 0x6f, 0x64, 0x65, 0x72, 0x5f, 0x31, 0x5f, 0x31, 0x2f, 0x4d, 0x61, 
  0x74, 0x4d, 0x75, 0x6c, 0x3b, 0x72, 0x65, 0x66, 0x69, 0x6e, 0x65, 0x64, 
  0x5f, 0x61, 0x75, 0x74, 0x6f, 0x65, 0x6e, 0x63, 0x6f, 0x64, 0x65, 0x72, 
  0x5f, 0x31, 0x2f, 0x64, 0x65, 0x63, 0x6f, 0x64, 0x65, 0x72, 0x5f, 0x31, 
  0x5f, 0x31, 0x2f, 0x52, 0x65, 0x6c, 0x75, 0x3b, 0x72, 0x65, 0x66, 0x69, 
  0x6e, 0x65, 0x64, 0x5f, 0x61, 0x75, 0x74, 0x6f, 0x65, 0x6e, 0x63, 0x6f, 
  0x64, 0x65, 0x72, 0x5f, 0x31, 0x2f, 0x64, 0x65, 0x63, 0x6f, 0x64, 0x65, 
  0x72, 0x5f, 0x31, 0x5f, 0x31, 0x2f, 0x42, 0x69, 0x61, 0x73, 0x41, 0x64, 
  0x64, 0x00, 0x00, 0x00, 0x02, 0x00, 0x00, 0x00, 0x01, 0x00, 0x00, 0x00, 
  0x18, 0x00, 0x00, 0x00, 0x9a, 0xf6, 0xff, 0xff, 0x00, 0x00, 0x00, 0x01, 
  0x14, 0x00, 0x00, 0x00, 0x1c, 0x00, 0x00, 0x00, 0x1c, 0x00, 0x00, 0x00, 
  0x10, 0x00, 0x00, 0x00, 0xf0, 0x00, 0x00, 0x00, 0x02, 0x00, 0x00, 0x00, 
  0xff, 0xff, 0xff, 0xff, 0x0c, 0x00, 0x00, 0x00, 0x84, 0xf6, 0xff, 0xff, 
  0xd6, 0x00, 0x00, 0x00, 0x72, 0x65, 0x66, 0x69, 0x6e, 0x65, 0x64, 0x5f, 
  0x61, 0x75, 0x74, 0x6f, 0x65, 0x6e, 0x63, 0x6f, 0x64, 0x65, 0x72, 0x5f, 
  0x31, 0x2f, 0x62, 0x6e, 0x5f, 0x32, 0x5f, 0x31, 0x2f, 0x62, 0x61, 0x74, 
  0x63, 0x68, 0x6e, 0x6f, 0x72, 0x6d, 0x2f, 0x6d, 0x75, 0x6c, 0x5f, 0x31, 
  0x3b, 0x72, 0x65, 0x66, 0x69, 0x6e, 0x65, 0x64, 0x5f, 0x61, 0x75, 0x74, 
  0x6f, 0x65, 0x6e, 0x63, 0x6f, 0x64, 0x65, 0x72, 0x5f, 0x31, 0x2f, 0x62, 
  0x6e, 0x5f, 0x32, 0x5f, 0x31, 0x2f, 0x62, 0x61, 0x74, 0x63, 0x68, 0x6e, 
  0x6f, 0x72, 0x6d, 0x2f, 0x61, 0x64, 0x64, 0x5f, 0x31, 0x3b, 0x72, 0x65, 
  0x66, 0x69, 0x6e, 0x65, 0x64, 0x5f, 0x61, 0x75, 0x74, 0x6f, 0x65, 0x6e, 
  0x63, 0x6f, 0x64, 0x65, 0x72, 0x5f, 0x31, 0x2f, 0x62, 0x6f, 0x74, 0x74, 
  0x6c, 0x65, 0x6e, 0x65, 0x63, 0x6b, 0x5f, 0x31, 0x2f, 0x4d, 0x61, 0x74, 
  0x4d, 0x75, 0x6c, 0x3b, 0x72, 0x65, 0x66, 0x69, 0x6e, 0x65, 0x64, 0x5f, 
  0x61, 0x75, 0x74, 0x6f, 0x65, 0x6e, 0x63, 0x6f, 0x64, 0x65, 0x72, 0x5f, 
  0x31, 0x2f, 0x62, 0x6f, 0x74, 0x74, 0x6c, 0x65, 0x6e, 0x65, 0x63, 0x6b, 
  0x5f, 0x31, 0x2f, 0x52, 0x65, 0x6c, 0x75, 0x3b, 0x72, 0x65, 0x66, 0x69, 
  0x6e, 0x65, 0x64, 0x5f, 0x61, 0x75, 0x74, 0x6f, 0x65, 0x6e, 0x63, 0x6f, 
  0x64, 0x65, 0x72, 0x5f, 0x31, 0x2f, 0x62, 0x6f, 0x74, 0x74, 0x6c, 0x65, 
  0x6e, 0x65, 0x63, 0x6b, 0x5f, 0x31, 0x2f, 0x42, 0x69, 0x61, 0x73, 0x41, 
  0x64, 0x64, 0x00, 0x00, 0x02, 0x00, 0x00, 0x00, 0x01, 0x00, 0x00, 0x00, 
  0x0c, 0x00, 0x00, 0x00, 0xae, 0xf7, 0xff, 0xff, 0x00, 0x00, 0x00, 0x01, 
  0x14, 0x00, 0x00, 0x00, 0x1c, 0x00, 0x00, 0x00, 0x1c, 0x00, 0x00, 0x00, 
  0x0f, 0x00, 0x00, 0x00, 0xec, 0x00, 0x00, 0x00, 0x02, 0x00, 0x00, 0x00, 
  0xff, 0xff, 0xff, 0xff, 0x18, 0x00, 0x00, 0x00, 0x98, 0xf7, 0xff, 0xff, 
  0xd3, 0x00, 0x00, 0x00, 0x72, 0x65, 0x66, 0x69, 0x6e, 0x65, 0x64, 0x5f, 
  0x61, 0x75, 0x74, 0x6f, 0x65, 0x6e, 0x63, 0x6f, 0x64, 0x65, 0x72, 0x5f, 
  0x31, 0x2f, 0x62, 0x6e, 0x5f, 0x31, 0x5f, 0x31, 0x2f, 0x62, 0x61, 0x74, 
  0x63, 0x68, 0x6e, 0x6f, 0x72, 0x6d, 0x2f, 0x6d, 0x75, 0x6c, 0x5f, 0x31, 
  0x3b, 0x72, 0x65, 0x66, 0x69, 0x6e, 0x65, 0x64, 0x5f, 0x61, 0x75, 0x74, 
  0x6f, 0x65, 0x6e, 0x63, 0x6f, 0x64, 0x65, 0x72, 0x5f, 0x31, 0x2f, 0x62, 
  0x6e, 0x5f, 0x31, 0x5f, 0x31, 0x2f, 0x62, 0x61, 0x74, 0x63, 0x68, 0x6e, 
  0x6f, 0x72, 0x6d, 0x2f, 0x61, 0x64, 0x64, 0x5f, 0x31, 0x3b, 0x72, 0x65, 
  0x66, 0x69, 0x6e, 0x65, 0x64, 0x5f, 0x61, 0x75, 0x74, 0x6f, 0x65, 0x6e, 
  0x63, 0x6f, 0x64, 0x65, 0x72, 0x5f, 0x31, 0x2f, 0x65, 0x6e, 0x63, 0x6f, 
  0x64, 0x65, 0x72, 0x5f, 0x32, 0x5f, 0x31, 0x2f, 0x4d, 0x61, 0x74, 0x4d, 
  0x75, 0x6c, 0x3b, 0x72, 0x65, 0x66, 0x69, 0x6e, 0x65, 0x64, 0x5f, 0x61, 
  0x75, 0x74, 0x6f, 0x65, 0x6e, 0x63, 0x6f, 0x64, 0x65, 0x72, 0x5f, 0x31, 
  0x2f, 0x65, 0x6e, 0x63, 0x6f, 0x64, 0x65, 0x72, 0x5f, 0x32, 0x5f, 0x31, 
  0x2f, 0x52, 0x65, 0x6c, 0x75, 0x3b, 0x72, 0x65, 0x66, 0x69, 0x6e, 0x65, 
  0x64, 0x5f, 0x61, 0x75, 0x74, 0x6f, 0x65, 0x6e, 0x63, 0x6f, 0x64, 0x65, 
  0x72, 0x5f, 0x31, 0x2f, 0x65, 0x6e, 0x63, 0x6f, 0x64, 0x65, 0x72, 0x5f, 
  0x32, 0x5f, 0x31, 0x2f, 0x42, 0x69, 0x61, 0x73, 0x41, 0x64, 0x64, 0x00, 
  0x02, 0x00, 0x00, 0x00, 0x01, 0x00, 0x00, 0x00, 0x18, 0x00, 0x00, 0x00, 
  0xbe, 0xf8, 0xff, 0xff, 0x00, 0x00, 0x00, 0x01, 0x14, 0x00, 0x00, 0x00, 
  0x1c, 0x00, 0x00, 0x00, 0x1c, 0x00, 0x00, 0x00, 0x0e, 0x00, 0x00, 0x00, 
  0x94, 0x00, 0x00, 0x00, 0x02, 0x00, 0x00, 0x00, 0xff, 0xff, 0xff, 0xff, 
  0x30, 0x00, 0x00, 0x00, 0xa8, 0xf8, 0xff, 0xff, 0x79, 0x00, 0x00, 0x00, 
  0x72, 0x65, 0x66, 0x69, 0x6e, 0x65, 0x64, 0x5f, 0x61, 0x75, 0x74, 0x6f, 
  0x65, 0x6e, 0x63, 0x6f, 0x64, 0x65, 0x72, 0x5f, 0x31, 0x2f, 0x65, 0x6e, 
  0x63, 0x6f, 0x64, 0x65, 0x72, 0x5f, 0x31, 0x5f, 0x31, 0x2f, 0x4d, 0x61, 
  0x74, 0x4d, 0x75, 0x6c, 0x3b, 0x72, 0x65, 0x66, 0x69, 0x6e, 0x65, 0x64, 
  0x5f, 0x61, 0x75, 0x74, 0x6f, 0x65, 0x6e, 0x63, 0x6f, 0x64, 0x65, 0x72, 
  0x5f, 0x31, 0x2f, 0x65, 0x6e, 0x63, 0x6f, 0x64, 0x65, 0x72, 0x5f, 0x31, 
  0x5f, 0x31, 0x2f, 0x52, 0x65, 0x6c, 0x75, 0x3b, 0x72, 0x65, 0x66, 0x69, 
  0x6e, 0x65, 0x64, 0x5f, 0x61, 0x75, 0x74, 0x6f, 0x65, 0x6e, 0x63, 0x6f, 
  0x64, 0x65, 0x72, 0x5f, 0x31, 0x2f, 0x65, 0x6e, 0x63, 0x6f, 0x64, 0x65, 
  0x72, 0x5f, 0x31, 0x5f, 0x31, 0x2f, 0x42, 0x69, 0x61, 0x73, 0x41, 0x64, 
  0x64, 0x00, 0x00, 0x00, 0x02, 0x00, 0x00, 0x00, 0x01, 0x00, 0x00, 0x00, 
  0x30, 0x00, 0x00, 0x00, 0x8a, 0xfe, 0xff, 0xff, 0x00, 0x00, 0x00, 0x01, 
  0x14, 0x00, 0x00, 0x00, 0x44, 0x01, 0x00, 0x00, 0x0d, 0x00, 0x00, 0x00, 
  0x00, 0x00, 0x00, 0x09, 0x50, 0x01, 0x00, 0x00, 0x74, 0xfe, 0xff, 0xff, 
  0x08, 0x00, 0x00, 0x00, 0xc8, 0x00, 0x00, 0x00, 0x18, 0x00, 0x00, 0x00, 
  0x00, 0x00, 0x00, 0x00, 0x00, 0x00, 0x00, 0x00, 0x00, 0x00, 0x00, 0x00, 
  0x00, 0x00, 0x00, 0x00, 0x00, 0x00, 0x00, 0x00, 0x00, 0x00, 0x00, 0x00, 
  0x00, 0x00, 0x00, 0x00, 0x00, 0x00, 0x00, 0x00, 0x00, 0x00, 0x00, 0x00, 
  0x00, 0x00, 0x00, 0x00, 0x00, 0x00, 0x00, 0x00, 0x00, 0x00, 0x00, 0x00, 
  0x00, 0x00, 0x00, 0x00, 0x00, 0x00, 0x00, 0x00, 0x00, 0x00, 0x00, 0x00, 
  0x00, 0x00, 0x00, 0x00, 0x00, 0x00, 0x00, 0x00, 0x00, 0x00, 0x00, 0x00, 
  0x00, 0x00, 0x00, 0x00, 0x00, 0x00, 0x00, 0x00, 0x00, 0x00, 0x00, 0x00, 
  0x00, 0x00, 0x00, 0x00, 0x00, 0x00, 0x00, 0x00, 0x00, 0x00, 0x00, 0x00, 
  0x00, 0x00, 0x00, 0x00, 0x00, 0x00, 0x00, 0x00, 0x00, 0x00, 0x00, 0x00, 
  0x00, 0x00, 0x00, 0x00, 0x00, 0x00, 0x00, 0x00, 0x00, 0x00, 0x00, 0x00, 
  0x00, 0x00, 0x00, 0x00, 0x00, 0x00, 0x00, 0x00, 0x00, 0x00, 0x00, 0x00, 
  0x00, 0x00, 0x00, 0x00, 0x00, 0x00, 0x00, 0x00, 0x00, 0x00, 0x00, 0x00, 
  0x00, 0x00, 0x00, 0x00, 0x00, 0x00, 0x00, 0x00, 0x00, 0x00, 0x00, 0x00, 
  0x00, 0x00, 0x00, 0x00, 0x00, 0x00, 0x00, 0x00, 0x00, 0x00, 0x00, 0x00, 
  0x00, 0x00, 0x00, 0x00, 0x00, 0x00, 0x00, 0x00, 0x00, 0x00, 0x00, 0x00, 
  0x00, 0x00, 0x00, 0x00, 0x00, 0x00, 0x00, 0x00, 0x00, 0x00, 0x00, 0x00, 
  0x18, 0x00, 0x00, 0x00, 0x1c, 0xc7, 0x25, 0x3c, 0x85, 0xa8, 0x4d, 0x3c, 
  0x99, 0x66, 0x8e, 0x3c, 0x5d, 0x08, 0x53, 0x3c, 0xac, 0xc1, 0x3d, 0x3c, 
  0xbe, 0x5e, 0x2d, 0x3c, 0x7c, 0x65, 0x55, 0x3c, 0x69, 0xf0, 0x65, 0x3c, 
  0x14, 0x62, 0x43, 0x3c, 0x11, 0x65, 0x22, 0x3c, 0x54, 0x67, 0x19, 0x3c, 
  0xdb, 0x4b, 0x26, 0x3c, 0xec, 0x91, 0x13, 0x3c, 0x2b, 0x0a, 0xe7, 0x3b, 
  0x38, 0x58, 0x40, 0x3c, 0x4c, 0xbf, 0x1e, 0x3c, 0x95, 0xc1, 0x83, 0x3c, 
  0xb7, 0xac, 0x14, 0x3c, 0x43, 0x2d, 0x90, 0x3c, 0x3c, 0x81, 0x10, 0x3c, 
  0xc6, 0x40, 0x8c, 0x3c, 0x47, 0x1a, 0x3b, 0x3c, 0x17, 0x77, 0x0a, 0x3c, 
  0x15, 0x50, 0xf3, 0x3b, 0x12, 0x00, 0x00, 0x00, 0x74, 0x66, 0x6c, 0x2e, 
  0x70, 0x73, 0x65, 0x75, 0x64, 0x6f, 0x5f, 0x71, 0x63, 0x6f, 0x6e, 0x73, 
  0x74, 0x31, 0x00, 0x00, 0x02, 0x00, 0x00, 0x00, 0x18, 0x00, 0x00, 0x00, 
  0x30, 0x00, 0x00, 0x00, 0x00, 0x00, 0x16, 0x00, 0x1c, 0x00, 0x18, 0x00, 
  0x17, 0x00, 0x10, 0x00, 0x0c, 0x00, 0x08, 0x00, 0x00, 0x00, 0x00, 0x00, 
  0x00, 0x00, 0x07, 0x00, 0x16, 0x00, 0x00, 0x00, 0x00, 0x00, 0x00, 0x01, 
  0x20, 0x00, 0x00, 0x00, 0x74, 0x02, 0x00, 0x00, 0x0c, 0x00, 0x00, 0x00, 
  0x00, 0x00, 0x00, 0x09, 0x80, 0x02, 0x00, 0x00, 0x0c, 0x00, 0x0c, 0x00, 
  0x00, 0x00, 0x00, 0x00, 0x08, 0x00, 0x04, 0x00, 0x0c, 0x00, 0x00, 0x00, 
  0x08, 0x00, 0x00, 0x00, 0x8c, 0x01, 0x00, 0x00, 0x30, 0x00, 0x00, 0x00, 
  0x00, 0x00, 0x00, 0x00, 0x00, 0x00, 0x00, 0x00, 0x00, 0x00, 0x00, 0x00, 
  0x00, 0x00, 0x00, 0x00, 0x00, 0x00, 0x00, 0x00, 0x00, 0x00, 0x00, 0x00, 
  0x00, 0x00, 0x00, 0x00, 0x00, 0x00, 0x00, 0x00, 0x00, 0x00, 0x00, 0x00, 
  0x00, 0x00, 0x00, 0x00, 0x00, 0x00, 0x00, 0x00, 0x00, 0x00, 0x00, 0x00, 
  0x00, 0x00, 0x00, 0x00, 0x00, 0x00, 0x00, 0x00, 0x00, 0x00, 0x00, 0x00, 
  0x00, 0x00, 0x00, 0x00, 0x00, 0x00, 0x00, 0x00, 0x00, 0x00, 0x00, 0x00, 
  0x00, 0x00, 0x00, 0x00, 0x00, 0x00, 0x00, 0x00, 0x00, 0x00, 0x00, 0x00, 
  0x00, 0x00, 0x00, 0x00, 0x00, 0x00, 0x00, 0x00, 0x00, 0x00, 0x00, 0x00, 
  0x00, 0x00, 0x00, 0x00, 0x00, 0x00, 0x00, 0x00, 0x00, 0x00, 0x00, 0x00, 
  0x00, 0x00, 0x00, 0x00, 0x00, 0x00, 0x00, 0x00, 0x00, 0x00, 0x00, 0x00, 
  0x00, 0x00, 0x00, 0x00, 0x00, 0x00, 0x00, 0x00, 0x00, 0x00, 0x00, 0x00, 
  0x00, 0x00, 0x00, 0x00, 0x00, 0x00, 0x00, 0x00, 0x00, 0x00, 0x00, 0x00, 
  0x00, 0x00, 0x00, 0x00, 0x00, 0x00, 0x00, 0x00, 0x00, 0x00, 0x00, 0x00, 
  0x00, 0x00, 0x00, 0x00, 0x00, 0x00, 0x00, 0x00, 0x00, 0x00, 0x00, 0x00, 
  0x00, 0x00, 0x00, 0x00, 0x00, 0x00, 0x00, 0x00, 0x00, 0x00, 0x00, 0x00, 
  0x00, 0x00, 0x00, 0x00, 0x00, 0x00, 0x00, 0x00, 0x00, 0x00, 0x00, 0x00, 
  0x00, 0x00, 0x00, 0x00, 0x00, 0x00, 0x00, 0x00, 0x00, 0x00, 0x00, 0x00, 
  0x00, 0x00, 0x00, 0x00, 0x00, 0x00, 0x00, 0x00, 0x00, 0x00, 0x00, 0x00, 
  0x00, 0x00, 0x00, 0x00, 0x00, 0x00, 0x00, 0x00, 0x00, 0x00, 0x00, 0x00, 
  0x00, 0x00, 0x00, 0x00, 0x00, 0x00, 0x00, 0x00, 0x00, 0x00, 0x00, 0x00, 
  0x00, 0x00, 0x00, 0x00, 0x00, 0x00, 0x00, 0x00, 0x00, 0x00, 0x00, 0x00, 
  0x00, 0x00, 0x00, 0x00, 0x00, 0x00, 0x00, 0x00, 0x00, 0x00, 0x00, 0x00, 
  0x00, 0x00, 0x00, 0x00, 0x00, 0x00, 0x00, 0x00, 0x00, 0x00, 0x00, 0x00, 
  0x00, 0x00, 0x00, 0x00, 0x00, 0x00, 0x00, 0x00, 0x00, 0x00, 0x00, 0x00, 
  0x00, 0x00, 0x00, 0x00, 0x00, 0x00, 0x00, 0x00, 0x00, 0x00, 0x00, 0x00, 
  0x00, 0x00, 0x00, 0x00, 0x00, 0x00, 0x00, 0x00, 0x00, 0x00, 0x00, 0x00, 
  0x00, 0x00, 0x00, 0x00, 0x00, 0x00, 0x00, 0x00, 0x00, 0x00, 0x00, 0x00, 
  0x00, 0x00, 0x00, 0x00, 0x00, 0x00, 0x00, 0x00, 0x00, 0x00, 0x00, 0x00, 
  0x00, 0x00, 0x00, 0x00, 0x00, 0x00, 0x00, 0x00, 0x00, 0x00, 0x00, 0x00, 
  0x00, 0x00, 0x00, 0x00, 0x00, 0x00, 0x00, 0x00, 0x00, 0x00, 0x00, 0x00, 
  0x00, 0x00, 0x00, 0x00, 0x00, 0x00, 0x00, 0x00, 0x00, 0x00, 0x00, 0x00, 
  0x00, 0x00, 0x00, 0x00, 0x00, 0x00, 0x00, 0x00, 0x00, 0x00, 0x00, 0x00, 
  0x00, 0x00, 0x00, 0x00, 0x30, 0x00, 0x00, 0x00, 0xe4, 0xc0, 0xec, 0x3b, 
  0xa3, 0xe4, 0x44, 0x3c, 0x6a, 0x16, 0x2a, 0x3c, 0x1e, 0x22, 0xc6, 0x3b, 
  0xcf, 0xd8, 0xee, 0x3b, 0x7e, 0xf1, 0x53, 0x3c, 0x92, 0x26, 0x78, 0x3b, 
  0x5f, 0x75, 0x9b, 0x3c, 0xab, 0xda, 0xfd, 0x3b, 0x4b, 0x15, 0xb1, 0x3b, 
  0x0d, 0x55, 0x97, 0x3b, 0xd2, 0x7a, 0xca, 0x3b, 0xd1, 0xa6, 0x69, 0x3b, 
  0x8d, 0xa9, 0xdb, 0x3c, 0xaa, 0xf9, 0xc1, 0x3b, 0x94, 0x48, 0xd8, 0x3b, 
  0xfe, 0x64, 0xbb, 0x3c, 0x64, 0xf0, 0x47, 0x3c, 0x08, 0xc2, 0xbe, 0x3b, 
  0x3c, 0x1f, 0x8b, 0x3c, 0x3a, 0x0d, 0x89, 0x3b, 0x39, 0x4c, 0x73, 0x3c, 
  0x73, 0x84, 0x63, 0x3c, 0xeb, 0x15, 0x05, 0x3d, 0x00, 0x04, 0xa1, 0x3b, 
  0x2e, 0xca, 0xac, 0x3b, 0x66, 0x36, 0x6b, 0x3b, 0x98, 0x13, 0x94, 0x3b, 
  0x6b, 0xd4, 0x96, 0x3b, 0x53, 0x45, 0xa0, 0x3b, 0x71, 0xbe, 0xd1, 0x3c, 
  0xd4, 0x1e, 0x2c, 0x3b, 0xde, 0xe5, 0xb7, 0x3c, 0x0e, 0xec, 0x52, 0x3c, 
  0x91, 0x6a, 0x88, 0x3c, 0xd7, 0x45, 0xbb, 0x3b, 0x32, 0x2f, 0x88, 0x3b, 
  0x54, 0xb8, 0x3e, 0x3b, 0xeb, 0xd7, 0x12, 0x3c, 0x9e, 0x60, 0xf7, 0x3b, 
  0xb9, 0x6c, 0x85, 0x3b, 0x74, 0x0e, 0x6e, 0x3b, 0x26, 0x96, 0x79, 0x3b, 
  0x69, 0xbc, 0xab, 0x3c, 0xca, 0x65, 0x21, 0x3d, 0xfe, 0x4e, 0x53, 0x3b, 
  0x33, 0x2a, 0xda, 0x3c, 0xe5, 0x81, 0x04, 0x3c, 0x11, 0x00, 0x00, 0x00, 
  0x74, 0x66, 0x6c, 0x2e, 0x70, 0x73, 0x65, 0x75, 0x64, 0x6f, 0x5f, 0x71, 
  0x63, 0x6f, 0x6e, 0x73, 0x74, 0x00, 0x00, 0x00, 0x02, 0x00, 0x00, 0x00, 
  0x30, 0x00, 0x00, 0x00, 0x18, 0x00, 0x00, 0x00, 0xf6, 0xfd, 0xff, 0xff, 
  0x00, 0x00, 0x00, 0x01, 0x10, 0x00, 0x00, 0x00, 0x10, 0x00, 0x00, 0x00, 
  0x0b, 0x00, 0x00, 0x00, 0x1c, 0x00, 0x00, 0x00, 0x80, 0xfd, 0xff, 0xff, 
  0x0f, 0x00, 0x00, 0x00, 0x61, 0x72, 0x69, 0x74, 0x68, 0x2e, 0x63, 0x6f, 
  0x6e, 0x73, 0x74, 0x61, 0x6e, 0x74, 0x39, 0x00, 0x01, 0x00, 0x00, 0x00, 
  0x30, 0x00, 0x00, 0x00, 0x2e, 0xfe, 0xff, 0xff, 0x00, 0x00, 0x00, 0x01, 
  0x10, 0x00, 0x00, 0x00, 0x10, 0x00, 0x00, 0x00, 0x0a, 0x00, 0x00, 0x00, 
  0x1c, 0x00, 0x00, 0x00, 0xb8, 0xfd, 0xff, 0xff, 0x0f, 0x00, 0x00, 0x00, 
  0x61, 0x72, 0x69, 0x74, 0x68, 0x2e, 0x63, 0x6f, 0x6e, 0x73, 0x74, 0x61, 
  0x6e, 0x74, 0x38, 0x00, 0x01, 0x00, 0x00, 0x00, 0x18, 0x00, 0x00, 0x00, 
  0x66, 0xfe, 0xff, 0xff, 0x00, 0x00, 0x00, 0x01, 0x10, 0x00, 0x00, 0x00, 
  0x10, 0x00, 0x00, 0x00, 0x09, 0x00, 0x00, 0x00, 0x1c, 0x00, 0x00, 0x00, 
  0xf0, 0xfd, 0xff, 0xff, 0x0f, 0x00, 0x00, 0x00, 0x61, 0x72, 0x69, 0x74, 
  0x68, 0x2e, 0x63, 0x6f, 0x6e, 0x73, 0x74, 0x61, 0x6e, 0x74, 0x37, 0x00, 
  0x02, 0x00, 0x00, 0x00, 0x0c, 0x00, 0x00, 0x00, 0x18, 0x00, 0x00, 0x00, 
  0xa2, 0xfe, 0xff, 0xff, 0x00, 0x00, 0x00, 0x01, 0x10, 0x00, 0x00, 0x00, 
  0x10, 0x00, 0x00, 0x00, 0x08, 0x00, 0x00, 0x00, 0x1c, 0x00, 0x00, 0x00, 
  0x2c, 0xfe, 0xff, 0xff, 0x0f, 0x00, 0x00, 0x00, 0x61, 0x72, 0x69, 0x74, 
  0x68, 0x2e, 0x63, 0x6f, 0x6e, 0x73, 0x74, 0x61, 0x6e, 0x74, 0x36, 0x00, 
  0x01, 0x00, 0x00, 0x00, 0x0c, 0x00, 0x00, 0x00, 0xda, 0xfe, 0xff, 0xff, 
  0x00, 0x00, 0x00, 0x01, 0x10, 0x00, 0x00, 0x00, 0x10, 0x00, 0x00, 0x00, 
  0x07, 0x00, 0x00, 0x00, 0x1c, 0x00, 0x00, 0x00, 0x64, 0xfe, 0xff, 0xff, 
  0x0f, 0x00, 0x00, 0x00, 0x61, 0x72, 0x69, 0x74, 0x68, 0x2e, 0x63, 0x6f, 
  0x6e, 0x73, 0x74, 0x61, 0x6e, 0x74, 0x35, 0x00, 0x01, 0x00, 0x00, 0x00, 
  0x18, 0x00, 0x00, 0x00, 0x12, 0xff, 0xff, 0xff, 0x00, 0x00, 0x00, 0x01, 
  0x10, 0x00, 0x00, 0x00, 0x10, 0x00, 0x00, 0x00, 0x06, 0x00, 0x00, 0x00, 
  0x1c, 0x00, 0x00, 0x00, 0x9c, 0xfe, 0xff, 0xff, 0x0f, 0x00, 0x00, 0x00, 
  0x61, 0x72, 0x69, 0x74, 0x68, 0x2e, 0x63, 0x6f, 0x6e, 0x73, 0x74, 0x61, 
  0x6e, 0x74, 0x34, 0x00, 0x02, 0x00, 0x00, 0x00, 0x10, 0x00, 0x00, 0x00, 
  0x30, 0x00, 0x00, 0x00, 0x4e, 0xff, 0xff, 0xff, 0x00, 0x00, 0x00, 0x01, 
  0x10, 0x00, 0x00, 0x00, 0x10, 0x00, 0x00, 0x00, 0x05, 0x00, 0x00, 0x00, 
  0x1c, 0x00, 0x00, 0x00, 0xd8, 0xfe, 0xff, 0xff, 0x0f, 0x00, 0x00, 0x00, 
  0x61, 0x72, 0x69, 0x74, 0x68, 0x2e, 0x63, 0x6f, 0x6e, 0x73, 0x74, 0x61, 
  0x6e, 0x74, 0x33, 0x00, 0x01, 0x00, 0x00, 0x00, 0x10, 0x00, 0x00, 0x00, 
  0x86, 0xff, 0xff, 0xff, 0x00, 0x00, 0x00, 0x01, 0x10, 0x00, 0x00, 0x00, 
  0x10, 0x00, 0x00, 0x00, 0x04, 0x00, 0x00, 0x00, 0x1c, 0x00, 0x00, 0x00, 
  0x10, 0xff, 0xff, 0xff, 0x0f, 0x00, 0x00, 0x00, 0x61, 0x72, 0x69, 0x74, 
  0x68, 0x2e, 0x63, 0x6f, 0x6e, 0x73, 0x74, 0x61, 0x6e, 0x74, 0x32, 0x00, 
  0x02, 0x00, 0x00, 0x00, 0x18, 0x00, 0x00, 0x00, 0x0c, 0x00, 0x00, 0x00, 
  0xc2, 0xff, 0xff, 0xff, 0x00, 0x00, 0x00, 0x01, 0x10, 0x00, 0x00, 0x00, 
  0x10, 0x00, 0x00, 0x00, 0x03, 0x00, 0x00, 0x00, 0x1c, 0x00, 0x00, 0x00, 
  0x4c, 0xff, 0xff, 0xff, 0x0f, 0x00, 0x00, 0x00, 0x61, 0x72, 0x69, 0x74, 
  0x68, 0x2e, 0x63, 0x6f, 0x6e, 0x73, 0x74, 0x61, 0x6e, 0x74, 0x31, 0x00, 
  0x02, 0x00, 0x00, 0x00, 0x30, 0x00, 0x00, 0x00, 0x10, 0x00, 0x00, 0x00, 
  0x00, 0x00, 0x16, 0x00, 0x18, 0x00, 0x14, 0x00, 0x00, 0x00, 0x10, 0x00, 
  0x0c, 0x00, 0x08, 0x00, 0x00, 0x00, 0x00, 0x00, 0x00, 0x00, 0x07, 0x00, 
  0x16, 0x00, 0x00, 0x00, 0x00, 0x00, 0x00, 0x01, 0x10, 0x00, 0x00, 0x00, 
  0x10, 0x00, 0x00, 0x00, 0x02, 0x00, 0x00, 0x00, 0x1c, 0x00, 0x00, 0x00, 
  0xa0, 0xff, 0xff, 0xff, 0x0e, 0x00, 0x00, 0x00, 0x61, 0x72, 0x69, 0x74, 
  0x68, 0x2e, 0x63, 0x6f, 0x6e, 0x73, 0x74, 0x61, 0x6e, 0x74, 0x00, 0x00, 
  0x01, 0x00, 0x00, 0x00, 0x30, 0x00, 0x00, 0x00, 0x00, 0x00, 0x16, 0x00, 
  0x1c, 0x00, 0x18, 0x00, 0x00, 0x00, 0x14, 0x00, 0x10, 0x00, 0x0c, 0x00, 
  0x00, 0x00, 0x00, 0x00, 0x08, 0x00, 0x07, 0x00, 0x16, 0x00, 0x00, 0x00, 
  0x00, 0x00, 0x00, 0x01, 0x14, 0x00, 0x00, 0x00, 0x20, 0x00, 0x00, 0x00, 
  0x20, 0x00, 0x00, 0x00, 0x01, 0x00, 0x00, 0x00, 0x34, 0x00, 0x00, 0x00, 
  0x02, 0x00, 0x00, 0x00, 0xff, 0xff, 0xff, 0xff, 0x10, 0x00, 0x00, 0x00, 
  0x04, 0x00, 0x04, 0x00, 0x04, 0x00, 0x00, 0x00, 0x17, 0x00, 0x00, 0x00, 
  0x73, 0x65, 0x72, 0x76, 0x69, 0x6e, 0x67, 0x5f, 0x64, 0x65, 0x66, 0x61, 
  0x75, 0x6c, 0x74, 0x5f, 0x69, 0x6e, 0x70, 0x75, 0x74, 0x3a, 0x30, 0x00, 
  0x02, 0x00, 0x00, 0x00, 0x01, 0x00, 0x00, 0x00, 0x10, 0x00, 0x00, 0x00, 
  0x01, 0x00, 0x00, 0x00, 0x10, 0x00, 0x00, 0x00, 0x0c, 0x00, 0x10, 0x00, 
  0x0f, 0x00, 0x00, 0x00, 0x08, 0x00, 0x04, 0x00, 0x0c, 0x00, 0x00, 0x00, 
  0x09, 0x00, 0x00, 0x00, 0x0c, 0x00, 0x00, 0x00, 0x00, 0x00, 0x00, 0x09, 
};

#endif  // REFINED_MODEL_DATA_H
